<pad>	0
<unk>	0
<s>	0
</s>	0
▁t	-0
he	-1
▁a	-2
in	-3
▁the	-4
on	-5
re	-6
er	-7
▁o	-8
at	-9
an	-10
▁s	-11
en	-12
ed	-13
▁c	-14
▁w	-15
es	-16
▁of	-17
al	-18
is	-19
it	-20
nd	-21
or	-22
▁in	-23
ar	-24
▁p	-25
▁b	-26
▁f	-27
ic	-28
▁and	-29
ion	-30
ing	-31
▁m	-32
ro	-33
as	-34
▁d	-35
▁to	-36
le	-37
ent	-38
▁h	-39
ou	-40
▁e	-41
▁re	-42
.[	-43
st	-44
om	-45
▁th	-46
▁l	-47
ol	-48
▁T	-49
ly	-50
▁A	-51
ct	-52
il	-53
▁n	-54
ation	-55
ve	-56
ur	-57
▁be	-58
ce	-59
im	-60
us	-61
▁S	-62
ad	-63
ch	-64
th	-65
▁g	-66
▁C	-67
▁as	-68
id	-69
▁I	-70
▁The	-71
ig	-72
▁1	-73
ul	-74
▁for	-75
am	-76
▁con	-77
et	-78
ver	-79
ut	-80
ir	-81
ow	-82
▁was	-83
▁M	-84
▁st	-85
ist	-86
▁on	-87
▁that	-88
her	-89
ot	-90
ere	-91
▁is	-92
▁B	-93
se	-94
ith	-95
▁de	-96
ra	-97
▁E	-98
▁by	-99
ter	-100
ies	-101
un	-102
▁wh	-103
▁with	-104
and	-105
op	-106
el	-107
▁an	-108
▁P	-109
▁su	-110
▁al	-111
rom	-112
ri	-113
▁ex	-114
▁(	-115
em	-116
os	-117
▁or	-118
ci	-119
.[1	-120
od	-121
ate	-122
ge	-123
▁H	-124
▁pro	-125
ain	-126
ers	-127
um	-128
ian	-129
est	-130
▁G	-131
▁R	-132
pe	-133
ay	-134
ity	-135
▁from	-136
res	-137
if	-138
▁it	-139
ical	-140
iv	-141
▁are	-142
▁at	-143
ant	-144
ab	-145
ac	-146
ment	-147
ore	-148
▁com	-149
▁were	-150
qu	-151
▁W	-152
▁F	-153
▁v	-154
ive	-155
ld	-156
▁In	-157
▁r	-158
00	-159
ud	-160
og	-161
ess	-162
ich	-163
▁N	-164
ated	-165
ort	-166
][	-167
pt	-168
gh	-169
pp	-170
▁se	-171
ia	-172
▁D	-173
▁"	-174
ure	-175
nt	-176
▁he	-177
▁L	-178
ill	-179
art	-180
ions	-181
cl	-182
ther	-183
rou	-184
▁ne	-185
▁which	-186
ast	-187
▁en	-188
.[2	-189
ave	-190
ult	-191
igh	-192
▁k	-193
ous	-194
▁ar	-195
ect	-196
▁J	-197
▁2	-198
▁19	-199
all	-200
iz	-201
▁O	-202
ary	-203
▁cont	-204
▁his	-205
ans	-206
ag	-207
ost	-208
▁int	-209
▁le	-210
per	-211
ial	-212
red	-213
ong	-214
cc	-215
av	-216
▁not	-217
▁ch	-218
▁un	-219
ome	-220
ak	-221
pl	-222
▁their	-223
ust	-224
ap	-225
ations	-226
ish	-227
oc	-228
so	-229
▁have	-230
▁pl	-231
▁u	-232
▁had	-233
▁us	-234
▁U	-235
ass	-236
end	-237
ence	-238
▁so	-239
our	-240
ally	-241
▁tr	-242
ie	-243
ard	-244
▁wor	-245
olog	-246
▁Ch	-247
ire	-248
rit	-249
ight	-250
▁im	-251
▁cl	-252
▁K	-253
▁sh	-254
ater	-255
act	-256
ff	-257
ars	-258
▁ab	-259
ber	-260
▁res	-261
ell	-262
ould	-263
▁per	-264
▁dis	-265
▁cent	-266
ition	-267
ces	-268
ine	-269
ign	-270
ates	-271
ance	-272
ory	-273
ip	-274
du	-275
▁but	-276
ric	-277
con	-278
ang	-279
▁rel	-280
ide	-281
▁all	-282
▁Th	-283
▁other	-284
▁whe	-285
▁also	-286
▁em	-287
▁this	-288
▁ad	-289
ame	-290
4]	-291
vel	-292
5]	-293
▁ag	-294
erm	-295
▁part	-296
3]	-297
6]	-298
any	-299
7]	-300
clud	-301
▁its	-302
2]	-303
age	-304
tern	-305
▁comm	-306
▁V	-307
1]	-308
out	-309
▁such	-310
9]	-311
8]	-312
▁form	-313
▁ev	-314
ru	-315
▁been	-316
▁y	-317
.[3	-318
ree	-319
reat	-320
ount	-321
▁comp	-322
over	-323
ib	-324
ism	-325
ack	-326
ction	-327
▁can	-328
ough	-329
we	-330
orm	-331
ace	-332
0]	-333
▁me	-334
ub	-335
▁who	-336
ord	-337
▁bec	-338
▁into	-339
ile	-340
▁includ	-341
ue	-342
ied	-343
▁cons	-344
ens	-345
ry	-346
ade	-347
nder	-348
ime	-349
▁ind	-350
ved	-351
rough	-352
▁more	-353
ced	-354
▁has	-355
▁sp	-356
hed	-357
▁pe	-358
▁they	-359
),	-360
ke	-361
now	-362
▁over	-363
▁pol	-364
▁bet	-365
uring	-366
ury	-367
fter	-368
ered	-369
ep	-370
aus	-371
▁imp	-372
ress	-373
▁ro	-374
ween	-375
▁reg	-376
able	-377
▁It	-378
irst	-379
ph	-380
▁As	-381
▁col	-382
ove	-383
yst	-384
ound	-385
▁most	-386
ew	-387
▁one	-388
▁between	-389
cre	-390
▁def	-391
▁than	-392
arly	-393
ks	-394
rib	-395
ystem	-396
▁spe	-397
gan	-398
low	-399
▁gen	-400
land	-401
,[	-402
▁soci	-403
▁under	-404
▁inf	-405
ual	-406
ious	-407
ities	-408
ents	-409
ng	-410
ron	-411
ution	-412
▁lar	-413
ood	-414
ors	-415
▁ob	-416
▁ph	-417
gy	-418
▁first	-419
▁This	-420
ational	-421
▁pre	-422
ural	-423
uro	-424
mer	-425
▁St	-426
][1	-427
ach	-428
ict	-429
▁some	-430
▁des	-431
▁ye	-432
▁war	-433
▁know	-434
▁rec	-435
ose	-436
.[4	-437
ite	-438
ics	-439
ative	-440
te	-441
▁att	-442
▁18	-443
aw	-444
▁Al	-445
ral	-446
▁hist	-447
les	-448
▁century	-449
ob	-450
▁inv	-451
▁ra	-452
iver	-453
▁Ind	-454
round	-455
iff	-456
amp	-457
▁20	-458
▁out	-459
ject	-460
urope	-461
ov	-462
old	-463
000	-464
overn	-465
ath	-466
ren	-467
▁exp	-468
ited	-469
▁would	-470
▁sub	-471
ists	-472
arth	-473
▁ref	-474
▁time	-475
▁Europe	-476
▁through	-477
▁bo	-478
▁mod	-479
▁peop	-480
▁them	-481
iod	-482
ific	-483
▁Un	-484
ubl	-485
opul	-486
ind	-487
ower	-488
ons	-489
▁supp	-490
▁many	-491
ians	-492
▁tw	-493
ern	-494
velop	-495
ex	-496
ts	-497
▁app	-498
▁sur	-499
▁land	-500
▁diff	-501
als	-502
ted	-503
▁act	-504
▁3	-505
▁pr	-506
one	-507
ology	-508
creas	-509
iss	-510
▁cult	-511
ings	-512
ten	-513
oman	-514
▁rep	-515
▁after	-516
▁popul	-517
meric	-518
▁new	-519
ys	-520
▁ac	-521
▁j	-522
led	-523
▁BC	-524
lect	-525
▁about	-526
▁used	-527
ild	-528
▁there	-529
▁am	-530
▁develop	-531
ok	-532
oss	-533
pire	-534
▁govern	-535
▁acc	-536
ice	-537
▁co	-538
,000	-539
tle	-540
hen	-541
outh	-542
▁off	-543
ments	-544
▁Americ	-545
▁may	-546
▁up	-547
▁we	-548
erv	-549
▁during	-550
ever	-551
uc	-552
are	-553
▁inter	-554
▁these	-555
wn	-556
▁rem	-557
arch	-558
cess	-559
▁Ar	-560
▁system	-561
▁only	-562
▁qu	-563
ures	-564
iet	-565
▁hum	-566
rop	-567
▁two	-568
▁Em	-569
▁contin	-570
▁people	-571
▁produ	-572
ike	-573
ffect	-574
▁Af	-575
urn	-576
ating	-577
▁increas	-578
▁He	-579
▁when	-580
▁period	-581
ail	-582
▁stud	-583
▁gener	-584
uch	-585
▁found	-586
cept	-587
▁est	-588
ized	-589
▁Brit	-590
conom	-591
▁bas	-592
▁again	-593
ily	-594
▁count	-595
▁large	-596
▁Sp	-597
▁years	-598
.[5	-599
cient	-600
▁world	-601
ran	-602
ines	-603
ax	-604
ause	-605
very	-606
▁ext	-607
▁known	-608
▁arm	-609
▁Afric	-610
▁4	-611
▁mar	-612
ug	-613
▁trans	-614
aj	-615
▁15	-616
▁Germ	-617
ished	-618
▁pres	-619
▁work	-620
▁end	-621
ature	-622
▁where	-623
alled	-624
ward	-625
▁Se	-626
ined	-627
owever	-628
ublic	-629
ilit	-630
fore	-631
ise	-632
ually	-633
▁econom	-634
rol	-635
ollow	-636
▁polit	-637
▁bel	-638
▁An	-639
imate	-640
▁dist	-641
▁lead	-642
ically	-643
▁sign	-644
▁inst	-645
▁sc	-646
lu	-647
▁On	-648
▁prov	-649
ann	-650
▁power	-651
▁differe	-652
tain	-653
.[7	-654
▁no	-655
ants	-656
hip	-657
▁Eng	-658
▁partic	-659
▁sl	-660
ather	-661
▁could	-662
▁fe	-663
▁Con	-664
oy	-665
orth	-666
▁num	-667
.[6	-668
▁occ	-669
][2	-670
▁set	-671
▁te	-672
▁dep	-673
sel	-674
illion	-675
uss	-676
olution	-677
ake	-678
▁while	-679
▁Re	-680
▁main	-681
ince	-682
▁17	-683
▁(1	-684
ruct	-685
▁government	-686
▁5	-687
▁often	-688
).	-689
sy	-690
ange	-691
▁well	-692
ract	-693
▁var	-694
▁became	-695
▁water	-696
▁against	-697
▁bl	-698
ological	-699
ole	-700
ident	-701
▁including	-702
pect	-703
ins	-704
▁mat	-705
here	-706
▁At	-707
▁early	-708
▁mon	-709
row	-710
▁relig	-711
▁her	-712
ible	-713
yn	-714
▁made	-715
▁result	-716
ful	-717
iel	-718
▁dec	-719
ivil	-720
ajor	-721
.[8	-722
oin	-723
▁both	-724
gest	-725
ization	-726
hes	-727
▁term	-728
ued	-729
▁Earth	-730
▁follow	-731
ergy	-732
▁social	-733
▁use	-734
ility	-735
.[9	-736
▁Roman	-737
ond	-738
▁tra	-739
lish	-740
▁later	-741
osed	-742
imes	-743
▁histor	-744
other	-745
▁art	-746
▁Empire	-747
▁organ	-748
▁milit	-749
ros	-750
▁support	-751
angu	-752
▁him	-753
▁commun	-754
▁like	-755
▁human	-756
ays	-757
▁ent	-758
ield	-759
ular	-760
▁disc	-761
▁ass	-762
estern	-763
▁sm	-764
▁called	-765
▁loc	-766
hem	-767
▁being	-768
▁const	-769
▁do	-770
▁King	-771
▁trad	-772
▁major	-773
▁led	-774
▁Gree	-775
though	-776
cial	-777
ets	-778
und	-779
▁political	-780
▁car	-781
erson	-782
▁colon	-783
▁Y	-784
▁high	-785
▁belie	-786
roup	-787
ife	-788
lex	-789
▁long	-790
ius	-791
▁need	-792
▁cre	-793
itions	-794
▁desc	-795
▁fore	-796
▁plan	-797
yp	-798
▁remain	-799
its	-800
omen	-801
▁str	-802
▁conf	-803
▁around	-804
▁process	-805
ale	-806
▁ap	-807
ivid	-808
the	-809
▁import	-810
▁effect	-811
▁langu	-812
▁different	-813
▁British	-814
ase	-815
▁fam	-816
▁consid	-817
rench	-818
ning	-819
▁Aust	-820
▁obs	-821
ina	-822
▁16	-823
▁though	-824
ues	-825
ample	-826
▁War	-827
ages	-828
▁South	-829
▁man	-830
arl	-831
▁By	-832
.[10	-833
ged	-834
▁gl	-835
.[11	-836
cy	-837
ries	-838
▁expl	-839
▁bu	-840
▁civil	-841
▁control	-842
ier	-843
▁These	-844
ccess	-845
▁military	-846
▁ret	-847
▁energy	-848
til	-849
ared	-850
▁influ	-851
ised	-852
iron	-853
▁law	-854
▁French	-855
▁example	-856
▁then	-857
▁mass	-858
▁state	-859
▁population	-860
▁tem	-861
.[12	-862
▁met	-863
▁De	-864
▁sim	-865
▁fl	-866
ft	-867
attle	-868
mb	-869
▁mem	-870
▁det	-871
▁Le	-872
ories	-873
▁began	-874
▁group	-875
ae	-876
iter	-877
▁exper	-878
▁ter	-879
king	-880
cond	-881
▁char	-882
▁For	-883
▁any	-884
ix	-885
."	-886
▁cor	-887
▁much	-888
apt	-889
igin	-890
ting	-891
▁sch	-892
▁6	-893
▁leg	-894
riv	-895
▁history	-896
▁United	-897
up	-898
ogra	-899
ross	-900
▁modern	-901
▁However	-902
ivers	-903
▁dem	-904
▁writ	-905
▁right	-906
▁adv	-907
▁Is	-908
.[13	-909
osp	-910
▁within	-911
▁small	-912
▁ord	-913
omet	-914
▁million	-915
▁did	-916
▁success	-917
▁estab	-918
ty	-919
oun	-920
read	-921
▁common	-922
▁7	-923
▁gr	-924
agn	-925
▁class	-926
ives	-927
iam	-928
iew	-929
▁fact	-930
rist	-931
▁move	-932
ording	-933
cent	-934
omin	-935
▁10	-936
ived	-937
ark	-938
atic	-939
▁three	-940
▁caus	-941
cies	-942
io	-943
gr	-944
inist	-945
–1	-946
▁New	-947
▁region	-948
gypt	-949
▁those	-950
arm	-951
▁city	-952
▁until	-953
aim	-954
uth	-955
form	-956
▁own	-957
ble	-958
▁forces	-959
▁cap	-960
▁Com	-961
▁ide	-962
▁Africa	-963
▁II	-964
",	-965
▁equ	-966
▁prot	-967
▁Egypt	-968
▁dire	-969
[1	-970
▁areas	-971
ified	-972
▁because	-973
▁201	-974
own	-975
urch	-976
▁add	-977
ness	-978
▁prop	-979
orn	-980
▁cr	-981
oviet	-982
▁before	-983
▁trade	-984
▁opp	-985
▁states	-986
oh	-987
▁ser	-988
▁14	-989
▁poss	-990
▁elect	-991
dom	-992
▁include	-993
.[14	-994
20	-995
▁same	-996
osition	-997
▁rev	-998
..	-999
▁number	-1000
chn	-1001
ograph	-1002
ental	-1003
▁army	-1004
▁Austral	-1005
▁Russ	-1006
▁life	-1007
▁Soviet	-1008
50	-1009
▁arg	-1010
▁death	-1011
▁Christ	-1012
▁appro	-1013
▁object	-1014
▁They	-1015
ef	-1016
▁resp	-1017
▁economic	-1018
▁bro	-1019
ribut	-1020
▁occur	-1021
ention	-1022
ize	-1023
▁king	-1024
aking	-1025
epend	-1026
▁English	-1027
▁what	-1028
oph	-1029
==	-1030
▁8	-1031
ah	-1032
.[15	-1033
▁ins	-1034
ec	-1035
▁ast	-1036
▁even	-1037
▁allow	-1038
urther	-1039
▁signific	-1040
ality	-1041
▁study	-1042
▁American	-1043
▁Ph	-1044
▁196	-1045
▁societ	-1046
▁ed	-1047
▁public	-1048
▁Fr	-1049
cif	-1050
app	-1051
ton	-1052
▁non	-1053
▁prev	-1054
▁appe	-1055
▁There	-1056
▁gre	-1057
ides	-1058
ivity	-1059
▁rest	-1060
▁great	-1061
ior	-1062
▁es	-1063
▁countries	-1064
▁phys	-1065
▁sever	-1066
▁European	-1067
▁env	-1068
▁dyn	-1069
ases	-1070
▁val	-1071
▁origin	-1072
▁Some	-1073
▁describ	-1074
obal	-1075
▁er	-1076
ense	-1077
▁among	-1078
ently	-1079
▁prom	-1080
cean	-1081
,[1	-1082
vers	-1083
▁along	-1084
▁she	-1085
▁important	-1086
ilos	-1087
▁rad	-1088
itation	-1089
ium	-1090
▁rul	-1091
▁sour	-1092
aced	-1093
▁States	-1094
iqu	-1095
▁ele	-1096
ital	-1097
ked	-1098
▁sug	-1099
.[16	-1100
▁After	-1101
▁cur	-1102
▁several	-1103
▁Ital	-1104
▁back	-1105
▁gra	-1106
▁matter	-1107
▁field	-1108
ential	-1109
▁pract	-1110
▁Col	-1111
▁each	-1112
▁culture	-1113
▁will	-1114
▁12	-1115
▁language	-1116
][3	-1117
idd	-1118
ands	-1119
▁Greek	-1120
▁needed	-1121
alth	-1122
ended	-1123
▁struct	-1124
.[17	-1125
▁less	-1126
▁significant	-1127
▁rese	-1128
els	-1129
▁due	-1130
▁view	-1131
▁force	-1132
▁if	-1133
▁China	-1134
▁France	-1135
▁North	-1136
ured	-1137
air	-1138
▁arch	-1139
ites	-1140
▁theory	-1141
▁Z	-1142
ices	-1143
▁grow	-1144
▁beh	-1145
▁techn	-1146
▁tradition	-1147
▁ge	-1148
au	-1149
▁mus	-1150
anish	-1151
atural	-1152
por	-1153
▁decl	-1154
ves	-1155
▁German	-1156
ividual	-1157
idence	-1158
▁Q	-1159
▁level	-1160
empt	-1161
gin	-1162
▁since	-1163
▁East	-1164
soci	-1165
▁based	-1166
apan	-1167
▁men	-1168
▁Western	-1169
▁hel	-1170
▁auth	-1171
▁conqu	-1172
ogn	-1173
aves	-1174
rial	-1175
ement	-1176
self	-1177
▁min	-1178
▁defe	-1179
face	-1180
▁developed	-1181
ple	-1182
iving	-1183
▁development	-1184
ided	-1185
bers	-1186
get	-1187
rus	-1188
▁ec	-1189
▁area	-1190
▁invol	-1191
▁Ant	-1192
istic	-1193
▁change	-1194
▁environ	-1195
▁person	-1196
ason	-1197
▁Pro	-1198
▁philos	-1199
▁second	-1200
sych	-1201
▁200	-1202
▁direct	-1203
▁territ	-1204
▁year	-1205
▁individual	-1206
▁religious	-1207
▁species	-1208
▁13	-1209
▁sol	-1210
▁took	-1211
▁light	-1212
▁considered	-1213
▁suggest	-1214
.[18	-1215
▁pass	-1216
ration	-1217
▁Wh	-1218
urb	-1219
ouse	-1220
enn	-1221
ese	-1222
▁ancient	-1223
▁camp	-1224
▁how	-1225
▁Japan	-1226
tt	-1227
man	-1228
hern	-1229
aid	-1230
▁chang	-1231
ick	-1232
ring	-1233
ters	-1234
▁exist	-1235
ols	-1236
bon	-1237
▁med	-1238
▁prim	-1239
ule	-1240
▁Asia	-1241
resent	-1242
▁return	-1243
ired	-1244
orthern	-1245
par	-1246
▁fin	-1247
ences	-1248
ision	-1249
day	-1250
▁Ca	-1251
ander	-1252
▁independ	-1253
▁offic	-1254
▁9	-1255
thod	-1256
▁Aug	-1257
▁typ	-1258
▁global	-1259
reed	-1260
az	-1261
▁cond	-1262
▁women	-1263
ried	-1264
▁stat	-1265
▁requ	-1266
▁bi	-1267
▁last	-1268
outher	-1269
oth	-1270
▁pat	-1271
aving	-1272
▁still	-1273
▁child	-1274
rodu	-1275
▁Germany	-1276
▁further	-1277
ger	-1278
outhern	-1279
1,	-1280
gen	-1281
▁prin	-1282
▁surface	-1283
▁el	-1284
.[19	-1285
astern	-1286
▁forest	-1287
ops	-1288
ively	-1289
ination	-1290
iverse	-1291
▁attempt	-1292
▁Joh	-1293
▁late	-1294
lished	-1295
ples	-1296
ledge	-1297
▁August	-1298
▁intern	-1299
yl	-1300
▁mater	-1301
▁dynast	-1302
etic	-1303
▁ann	-1304
▁May	-1305
ript	-1306
▁very	-1307
▁Acc	-1308
▁bod	-1309
▁general	-1310
acy	-1311
nce	-1312
▁Spanish	-1313
▁US	-1314
▁claim	-1315
cul	-1316
▁event	-1317
▁four	-1318
iddle	-1319
▁underst	-1320
▁environment	-1321
ably	-1322
▁now	-1323
▁attack	-1324
eral	-1325
iber	-1326
▁few	-1327
▁199	-1328
▁anim	-1329
▁black	-1330
▁experi	-1331
▁Rome	-1332
ges	-1333
▁way	-1334
acter	-1335
cing	-1336
▁India	-1337
2,	-1338
▁relations	-1339
oint	-1340
▁mor	-1341
mber	-1342
med	-1343
ean	-1344
▁present	-1345
▁Wor	-1346
▁inc	-1347
▁educ	-1348
▁local	-1349
osphere	-1350
▁material	-1351
▁po	-1352
▁Alex	-1353
▁tro	-1354
▁vis	-1355
▁ident	-1356
ert	-1357
tal	-1358
ober	-1359
cially	-1360
▁America	-1361
▁temper	-1362
▁concept	-1363
▁national	-1364
ycl	-1365
▁near	-1366
ey	-1367
▁–	-1368
ricult	-1369
▁Mus	-1370
▁Union	-1371
▁country	-1372
ission	-1373
▁natural	-1374
▁eth	-1375
▁194	-1376
▁Will	-1377
▁empire	-1378
anding	-1379
▁cultural	-1380
▁op	-1381
▁redu	-1382
▁various	-1383
ened	-1384
igen	-1385
▁continued	-1386
▁lim	-1387
▁established	-1388
oon	-1389
▁associ	-1390
ck	-1391
ances	-1392
▁coast	-1393
ertain	-1394
overed	-1395
ris	-1396
▁During	-1397
▁polic	-1398
▁According	-1399
▁Comm	-1400
▁indust	-1401
orts	-1402
▁another	-1403
ains	-1404
cific	-1405
oid	-1406
ute	-1407
▁climate	-1408
ze	-1409
▁thought	-1410
▁increased	-1411
▁Char	-1412
▁ship	-1413
aign	-1414
▁following	-1415
sequ	-1416
▁enc	-1417
▁knowledge	-1418
9,	-1419
▁place	-1420
▁record	-1421
hi	-1422
▁sy	-1423
▁across	-1424
iol	-1425
une	-1426
▁represent	-1427
▁Pl	-1428
iven	-1429
▁author	-1430
▁earl	-1431
▁William	-1432
ds	-1433
▁simil	-1434
▁psych	-1435
▁cour	-1436
▁Church	-1437
ones	-1438
▁Oct	-1439
.[21	-1440
▁Sun	-1441
▁Ne	-1442
▁Mar	-1443
▁fun	-1444
▁meas	-1445
perial	-1446
ering	-1447
ote	-1448
▁atm	-1449
▁pred	-1450
▁become	-1451
▁inform	-1452
▁capt	-1453
▁'	-1454
▁All	-1455
▁Ott	-1456
▁ant	-1457
igenous	-1458
▁Cl	-1459
lear	-1460
itive	-1461
▁south	-1462
▁strong	-1463
way	-1464
▁show	-1465
▁subject	-1466
▁evidence	-1467
.[20	-1468
▁vol	-1469
me	-1470
▁sent	-1471
▁Although	-1472
▁John	-1473
▁dest	-1474
▁included	-1475
ik	-1476
▁11	-1477
.[22	-1478
NA	-1479
▁schol	-1480
iversity	-1481
▁Gen	-1482
pecially	-1483
ley	-1484
ull	-1485
▁build	-1486
wor	-1487
rian	-1488
▁crit	-1489
▁rights	-1490
▁scient	-1491
col	-1492
▁domin	-1493
wards	-1494
▁mean	-1495
3,	-1496
▁adm	-1497
▁Christian	-1498
ony	-1499
ock	-1500
▁eng	-1501
▁gal	-1502
▁times	-1503
▁cities	-1504
▁just	-1505
▁conc	-1506
ication	-1507
▁Rev	-1508
4,	-1509
5,	-1510
pre	-1511
▁lab	-1512
▁World	-1513
▁systems	-1514
▁African	-1515
▁campaign	-1516
ither	-1517
ll	-1518
▁although	-1519
▁hig	-1520
▁stars	-1521
▁av	-1522
▁method	-1523
▁Great	-1524
hers	-1525
ained	-1526
▁without	-1527
ilt	-1528
▁creat	-1529
▁neg	-1530
][4	-1531
otion	-1532
peror	-1533
▁north	-1534
ash	-1535
ability	-1536
▁movement	-1537
ression	-1538
▁troops	-1539
▁others	-1540
▁dynasty	-1541
▁agricult	-1542
▁Sh	-1543
can	-1544
rent	-1545
▁iss	-1546
▁central	-1547
▁increasing	-1548
ky	-1549
."[	-1550
ames	-1551
lands	-1552
blem	-1553
▁family	-1554
▁similar	-1555
▁influence	-1556
▁Pers	-1557
cip	-1558
▁space	-1559
▁protect	-1560
▁came	-1561
ased	-1562
▁init	-1563
exic	-1564
used	-1565
▁England	-1566
inese	-1567
▁stre	-1568
▁music	-1569
▁role	-1570
▁197	-1571
▁sci	-1572
▁tre	-1573
▁start	-1574
▁using	-1575
▁belief	-1576
8,	-1577
umb	-1578
ler	-1579
▁proper	-1580
itud	-1581
▁Mexic	-1582
▁observ	-1583
▁West	-1584
▁down	-1585
▁help	-1586
ploy	-1587
▁comb	-1588
ope	-1589
▁191	-1590
ensive	-1591
30	-1592
▁Rep	-1593
▁comple	-1594
▁groups	-1595
ification	-1596
▁good	-1597
7,	-1598
iation	-1599
ca	-1600
▁kill	-1601
▁serv	-1602
6,	-1603
▁Arm	-1604
ats	-1605
▁Har	-1606
▁His	-1607
▁Chinese	-1608
▁Ab	-1609
.[23	-1610
atin	-1611
▁refer	-1612
itution	-1613
▁especially	-1614
▁old	-1615
to	-1616
ched	-1617
ially	-1618
ead	-1619
▁regions	-1620
ends	-1621
▁Can	-1622
▁liter	-1623
yd	-1624
▁carbon	-1625
▁Australia	-1626
ailed	-1627
asion	-1628
▁problem	-1629
▁my	-1630
▁Pol	-1631
▁held	-1632
▁society	-1633
▁eff	-1634
iers	-1635
most	-1636
▁When	-1637
ths	-1638
ven	-1639
▁foc	-1640
ometimes	-1641
pr	-1642
▁go	-1643
▁obser	-1644
ria	-1645
cious	-1646
▁caused	-1647
▁low	-1648
▁tex	-1649
▁left	-1650
▁make	-1651
▁order	-1652
▁day	-1653
▁far	-1654
uries	-1655
▁relative	-1656
▁orb	-1657
▁hal	-1658
▁pur	-1659
▁forms	-1660
▁air	-1661
▁vict	-1662
▁rather	-1663
ank	-1664
ored	-1665
▁turn	-1666
▁Battle	-1667
lict	-1668
▁Other	-1669
▁behav	-1670
▁Many	-1671
▁Cent	-1672
▁Sc	-1673
ought	-1674
▁capital	-1675
▁X	-1676
▁sold	-1677
".	-1678
ades	-1679
▁usually	-1680
▁Bl	-1681
▁dra	-1682
▁coll	-1683
▁given	-1684
▁largest	-1685
▁research	-1686
▁div	-1687
▁ocean	-1688
ai	-1689
elf	-1690
▁Ad	-1691
▁Gu	-1692
ronom	-1693
▁however	-1694
ipp	-1695
▁Fran	-1696
osystem	-1697
▁One	-1698
▁anal	-1699
▁fall	-1700
▁Revolution	-1701
aken	-1702
▁rain	-1703
▁Alexander	-1704
▁philosoph	-1705
▁affect	-1706
▁lo	-1707
stant	-1708
▁seen	-1709
▁addition	-1710
▁every	-1711
▁formed	-1712
akes	-1713
▁food	-1714
ici	-1715
rought	-1716
ularly	-1717
▁account	-1718
▁character	-1719
▁Am	-1720
aval	-1721
olic	-1722
anded	-1723
▁Italy	-1724
ird	-1725
▁reb	-1726
▁wide	-1727
▁throughout	-1728
▁terms	-1729
ologists	-1730
▁ri	-1731
▁died	-1732
▁name	-1733
▁treat	-1734
▁planet	-1735
80	-1736
aged	-1737
side	-1738
▁see	-1739
▁close	-1740
▁separ	-1741
eng	-1742
erest	-1743
▁grav	-1744
▁battle	-1745
▁rule	-1746
arily	-1747
▁With	-1748
▁created	-1749
▁pot	-1750
▁wind	-1751
▁leaders	-1752
omp	-1753
ires	-1754
▁universe	-1755
▁centuries	-1756
wh	-1757
ying	-1758
▁surv	-1759
▁parts	-1760
▁super	-1761
ling	-1762
▁estim	-1763
less	-1764
enced	-1765
▁repl	-1766
▁Kh	-1767
co	-1768
att	-1769
▁you	-1770
▁free	-1771
▁Middle	-1772
arn	-1773
rab	-1774
.[24	-1775
ached	-1776
imately	-1777
▁sing	-1778
▁Ottoman	-1779
ada	-1780
▁cir	-1781
▁short	-1782
ruction	-1783
▁Ed	-1784
▁Ge	-1785
▁Pr	-1786
▁events	-1787
▁generally	-1788
for	-1789
▁mult	-1790
▁Indian	-1791
▁education	-1792
▁reason	-1793
▁should	-1794
▁El	-1795
▁concern	-1796
▁sometimes	-1797
urg	-1798
▁gu	-1799
▁deb	-1800
▁Latin	-1801
▁northern	-1802
▁par	-1803
▁Britain	-1804
▁heav	-1805
▁suff	-1806
yle	-1807
▁lands	-1808
rast	-1809
▁sea	-1810
▁introdu	-1811
▁production	-1812
▁Or	-1813
▁br	-1814
▁impact	-1815
▁associated	-1816
nam	-1817
▁pos	-1818
urban	-1819
ards	-1820
▁nuc	-1821
▁changes	-1822
▁emer	-1823
▁either	-1824
▁studies	-1825
▁defin	-1826
ending	-1827
▁galax	-1828
▁rece	-1829
isation	-1830
▁star	-1831
▁While	-1832
▁Med	-1833
▁complex	-1834
aries	-1835
ember	-1836
▁colonial	-1837
ma	-1838
▁mer	-1839
▁Be	-1840
rown	-1841
▁described	-1842
iest	-1843
orted	-1844
▁Kingdom	-1845
arent	-1846
▁popular	-1847
▁scholars	-1848
itu	-1849
▁mo	-1850
▁sec	-1851
▁tax	-1852
▁Jew	-1853
▁disp	-1854
▁Russia	-1855
▁children	-1856
▁information	-1857
▁humans	-1858
▁religion	-1859
▁remained	-1860
lim	-1861
▁total	-1862
▁increase	-1863
ram	-1864
ency	-1865
▁recogn	-1866
▁cause	-1867
ingu	-1868
▁loss	-1869
▁begin	-1870
ison	-1871
▁son	-1872
▁southern	-1873
▁Caes	-1874
lam	-1875
▁fig	-1876
ateg	-1877
▁model	-1878
▁slaves	-1879
▁current	-1880
lo	-1881
===	-1882
▁===	-1883
▁lost	-1884
▁press	-1885
▁conflict	-1886
▁followed	-1887
▁Ju	-1888
▁abs	-1889
▁viol	-1890
▁certain	-1891
▁administ	-1892
▁cal	-1893
▁resour	-1894
▁objects	-1895
by	-1896
isms	-1897
▁DNA	-1898
▁pers	-1899
▁nature	-1900
▁astronom	-1901
▁z	-1902
ata	-1903
▁interact	-1904
▁animals	-1905
,[2	-1906
▁port	-1907
▁amount	-1908
citation	-1909
rag	-1910
▁Spain	-1911
▁least	-1912
▁design	-1913
▁members	-1914
▁interest	-1915
▁having	-1916
▁fem	-1917
throp	-1918
▁post	-1919
▁scho	-1920
aps	-1921
tic	-1922
iate	-1923
▁Car	-1924
.[25	-1925
▁play	-1926
▁Republic	-1927
inct	-1928
▁possible	-1929
▁Caesar	-1930
▁leading	-1931
▁science	-1932
▁Act	-1933
▁ecosystem	-1934
xt	-1935
pite	-1936
▁body	-1937
igation	-1938
▁Mong	-1939
▁activ	-1940
▁determ	-1941
atures	-1942
hel	-1943
val	-1944
▁Port	-1945
▁laws	-1946
▁atmosphere	-1947
aces	-1948
▁point	-1949
▁reform	-1950
▁contribut	-1951
▁take	-1952
cle	-1953
ots	-1954
pid	-1955
.[26	-1956
▁Gal	-1957
▁ground	-1958
▁regard	-1959
▁chem	-1960
▁works	-1961
▁higher	-1962
▁product	-1963
▁particular	-1964
reg	-1965
▁oper	-1966
▁peace	-1967
▁spread	-1968
ator	-1969
▁conv	-1970
▁processes	-1971
ung	-1972
▁past	-1973
ography	-1974
▁maintain	-1975
▁believed	-1976
▁conditions	-1977
▁temperature	-1978
ane	-1979
chie	-1980
▁able	-1981
▁built	-1982
▁growth	-1983
▁official	-1984
▁[	-1985
▁accept	-1986
▁threat	-1987
▁fle	-1988
selves	-1989
▁structure	-1990
▁trib	-1991
itut	-1992
rum	-1993
aded	-1994
▁193	-1995
▁Age	-1996
icult	-1997
itted	-1998
be	-1999
▁Assy	-2000
▁Sept	-2001
▁real	-2002
▁thin	-2003
▁previous	-2004
rote	-2005
ceed	-2006
▁Des	-2007
▁saw	-2008
ators	-2009
▁Part	-2010
▁occup	-2011
nect	-2012
▁cell	-2013
▁publ	-2014
▁mathem	-2015
▁source	-2016
▁magn	-2017
rain	-2018
▁Rom	-2019
▁Conf	-2020
▁urban	-2021
ye	-2022
avery	-2023
▁prof	-2024
▁ships	-2025
▁stand	-2026
eter	-2027
▁age	-2028
iness	-2029
▁la	-2030
▁195	-2031
▁lit	-2032
rated	-2033
▁farm	-2034
af	-2035
ising	-2036
▁pain	-2037
▁former	-2038
▁settle	-2039
▁Pa	-2040
ming	-2041
▁202	-2042
▁exam	-2043
▁rele	-2044
▁wrote	-2045
▁sources	-2046
▁September	-2047
ica	-2048
▁almost	-2049
▁relationship	-2050
ids	-2051
▁planets	-2052
▁particularly	-2053
▁ben	-2054
▁ethn	-2055
▁fund	-2056
▁allowed	-2057
▁expans	-2058
cript	-2059
rest	-2060
▁upon	-2061
▁imperial	-2062
▁Lin	-2063
▁Je	-2064
▁dev	-2065
▁self	-2066
ropical	-2067
...	-2068
▁successful	-2069
oms	-2070
ented	-2071
▁del	-2072
▁June	-2073
▁travel	-2074
▁themselves	-2075
ne	-2076
gram	-2077
▁(19	-2078
▁Arab	-2079
▁perform	-2080
▁related	-2081
▁Nap	-2082
anted	-2083
owers	-2084
▁appl	-2085
▁means	-2086
eth	-2087
yal	-2088
▁coun	-2089
▁happ	-2090
▁Russian	-2091
▁meaning	-2092
▁half	-2093
ta	-2094
▁Phil	-2095
▁position	-2096
▁From	-2097
▁policy	-2098
ox	-2099
ocr	-2100
itual	-2101
▁line	-2102
erence	-2103
▁Central	-2104
▁October	-2105
▁So	-2106
▁aut	-2107
▁whether	-2108
itect	-2109
▁National	-2110
ales	-2111
▁single	-2112
▁languages	-2113
cil	-2114
▁hold	-2115
aster	-2116
▁traditional	-2117
▁bar	-2118
▁expansion	-2119
ela	-2120
▁Most	-2121
▁priv	-2122
▁invasion	-2123
▁achie	-2124
0%	-2125
anu	-2126
oyal	-2127
▁Hist	-2128
▁wall	-2129
▁itself	-2130
▁defeated	-2131
ving	-2132
oleon	-2133
▁forced	-2134
iles	-2135
▁conquest	-2136
▁Ex	-2137
omes	-2138
▁Cath	-2139
▁Gand	-2140
▁Mexico	-2141
▁international	-2142
osm	-2143
▁likely	-2144
lin	-2145
ensity	-2146
▁physical	-2147
amed	-2148
▁dam	-2149
▁flow	-2150
▁historians	-2151
coln	-2152
▁rise	-2153
▁earth	-2154
▁ke	-2155
ressed	-2156
▁consist	-2157
ief	-2158
▁top	-2159
0,000	-2160
▁adop	-2161
▁soil	-2162
▁Napoleon	-2163
▁produced	-2164
requ	-2165
ront	-2166
ties	-2167
▁phen	-2168
▁Per	-2169
▁peoples	-2170
▁Lincoln	-2171
▁Cle	-2172
▁dark	-2173
▁March	-2174
▁economy	-2175
▁establish	-2176
ople	-2177
▁lack	-2178
▁said	-2179
▁respons	-2180
▁consider	-2181
▁proposed	-2182
ining	-2183
▁appear	-2184
▁brought	-2185
ner	-2186
▁ve	-2187
ption	-2188
▁gave	-2189
▁argued	-2190
▁entire	-2191
▁foreign	-2192
▁mid	-2193
erous	-2194
▁July	-2195
▁does	-2196
▁fire	-2197
▁mill	-2198
▁word	-2199
▁never	-2200
▁Gandhi	-2201
▁written	-2202
▁discovered	-2203
orest	-2204
omb	-2205
vere	-2206
▁Sea	-2207
▁Tur	-2208
▁expect	-2209
▁behavior	-2210
0,	-2211
eb	-2212
lection	-2213
▁Muslim	-2214
▁billion	-2215
▁reign	-2216
▁eventually	-2217
▁lower	-2218
▁princi	-2219
ara	-2220
▁symb	-2221
▁thus	-2222
atives	-2223
▁taken	-2224
▁killed	-2225
▁western	-2226
▁ir	-2227
▁Moon	-2228
▁open	-2229
▁quest	-2230
▁effects	-2231
▁architect	-2232
0.	-2233
▁km	-2234
itude	-2235
▁impro	-2236
▁employ	-2237
▁soldiers	-2238
][5	-2239
.[27	-2240
▁cit	-2241
▁resources	-2242
know	-2243
work	-2244
▁historical	-2245
▁Mand	-2246
▁hand	-2247
▁published	-2248
▁territory	-2249
▁divid	-2250
▁might	-2251
▁Par	-2252
▁Viet	-2253
▁cycl	-2254
▁mark	-2255
▁kingdom	-2256
▁Pe	-2257
▁fav	-2258
inent	-2259
▁Jeff	-2260
▁aver	-2261
▁larger	-2262
▁towards	-2263
sh	-2264
▁net	-2265
▁five	-2266
lation	-2267
go	-2268
▁cost	-2269
▁difficult	-2270
ush	-2271
▁fight	-2272
▁making	-2273
▁Persian	-2274
▁six	-2275
▁east	-2276
▁prob	-2277
yed	-2278
▁Tr	-2279
chan	-2280
▁lat	-2281
▁days	-2282
▁Portug	-2283
pir	-2284
▁21	-2285
pril	-2286
iance	-2287
▁royal	-2288
▁living	-2289
▁cultures	-2290
▁sk	-2291
▁rate	-2292
▁Islam	-2293
▁invest	-2294
▁connect	-2295
atra	-2296
▁destro	-2297
▁observed	-2298
ival	-2299
▁mount	-2300
▁environmental	-2301
abit	-2302
eder	-2303
like	-2304
play	-2305
▁case	-2306
▁rapid	-2307
▁types	-2308
▁mathemat	-2309
▁estimated	-2310
▁sum	-2311
gether	-2312
▁together	-2313
▁Jefferson	-2314
▁supported	-2315
▁collect	-2316
▁evolution	-2317
▁River	-2318
▁plants	-2319
leg	-2320
▁186	-2321
▁hyd	-2322
▁April	-2323
▁focus	-2324
ham	-2325
▁Im	-2326
▁specific	-2327
▁{	-2328
augh	-2329
▁Mes	-2330
▁phenomen	-2331
▁beginning	-2332
ont	-2333
▁cross	-2334
▁conscious	-2335
izing	-2336
▁majority	-2337
[2	-2338
che	-2339
▁indic	-2340
rm	-2341
▁size	-2342
▁anthrop	-2343
▁reached	-2344
▁ens	-2345
▁away	-2346
▁site	-2347
▁ideas	-2348
▁complete	-2349
▁philosophy	-2350
▁Eastern	-2351
▁provided	-2352
▁ty	-2353
overy	-2354
▁sett	-2355
▁frequ	-2356
▁range	-2357
▁colonies	-2358
▁experience	-2359
▁populations	-2360
fer	-2361
phas	-2362
▁Her	-2363
▁situ	-2364
▁court	-2365
▁white	-2366
▁find	-2367
▁west	-2368
▁provide	-2369
reak	-2370
▁fri	-2371
▁slavery	-2372
ula	-2373
▁aff	-2374
empor	-2375
▁moral	-2376
▁Vietnam	-2377
▁Dece	-2378
▁elements	-2379
ights	-2380
▁scientific	-2381
ena	-2382
▁dom	-2383
▁lay	-2384
istance	-2385
▁mechan	-2386
duct	-2387
▁Catholic	-2388
▁activity	-2389
uk	-2390
▁And	-2391
▁reach	-2392
oration	-2393
▁health	-2394
▁interpre	-2395
.[28	-2396
reme	-2397
▁levels	-2398
▁°	-2399
▁broad	-2400
▁solar	-2401
arc	-2402
ague	-2403
▁lin	-2404
war	-2405
thing	-2406
▁next	-2407
▁largely	-2408
uted	-2409
▁cosm	-2410
▁legal	-2411
▁Ber	-2412
▁thous	-2413
▁approx	-2414
▁ep	-2415
ovember	-2416
▁little	-2417
och	-2418
▁fa	-2419
▁pir	-2420
▁status	-2421
▁primary	-2422
▁December	-2423
▁involved	-2424
▁referred	-2425
▁quant	-2426
▁respect	-2427
▁independence	-2428
▁Val	-2429
iment	-2430
▁memory	-2431
▁communication	-2432
▁god	-2433
arian	-2434
▁gold	-2435
▁emphas	-2436
▁greater	-2437
▁special	-2438
▁victory	-2439
▁function	-2440
▁198	-2441
aring	-2442
▁instead	-2443
▁community	-2444
▁Bal	-2445
iting	-2446
▁bord	-2447
▁whose	-2448
▁Charles	-2449
ique	-2450
▁our	-2451
▁ended	-2452
▁predict	-2453
zant	-2454
ossil	-2455
▁contrast	-2456
ylon	-2457
▁idea	-2458
▁named	-2459
▁November	-2460
][6	-2461
ours	-2462
▁flood	-2463
▁sense	-2464
rel	-2465
anuary	-2466
▁transp	-2467
▁remains	-2468
ery	-2469
antic	-2470
▁benef	-2471
▁formation	-2472
ene	-2473
▁En	-2474
cret	-2475
ways	-2476
▁BCE	-2477
anced	-2478
ronze	-2479
ado	-2480
rug	-2481
▁To	-2482
fact	-2483
▁Cal	-2484
▁dise	-2485
▁citiz	-2486
issions	-2487
▁powers	-2488
▁series	-2489
][7	-2490
ads	-2491
inary	-2492
ional	-2493
▁cover	-2494
▁authority	-2495
ready	-2496
rict	-2497
▁Cong	-2498
▁famil	-2499
▁Columb	-2500
▁earliest	-2501
▁includes	-2502
rew	-2503
utes	-2504
▁Sch	-2505
▁nation	-2506
▁January	-2507
oted	-2508
▁192	-2509
▁Mil	-2510
▁nob	-2511
▁put	-2512
▁Geor	-2513
▁scale	-2514
▁average	-2515
▁potential	-2516
▁Bab	-2517
▁bur	-2518
▁love	-2519
▁divided	-2520
▁communities	-2521
clus	-2522
▁defined	-2523
cont	-2524
▁Hen	-2525
▁ult	-2526
▁Mongol	-2527
▁outside	-2528
▁literature	-2529
▁revolution	-2530
amb	-2531
▁must	-2532
▁indigenous	-2533
▁independent	-2534
▁pay	-2535
iding	-2536
▁young	-2537
▁Mandela	-2538
▁program	-2539
▁approach	-2540
der	-2541
ysis	-2542
▁100	-2543
▁doc	-2544
▁liber	-2545
issance	-2546
▁Byzant	-2547
▁Constant	-2548
▁according	-2549
atory	-2550
▁Prot	-2551
▁grad	-2552
▁Black	-2553
▁necess	-2554
▁industrial	-2555
.[29	-2556
▁theories	-2557
▁Churchill	-2558
sc	-2559
son	-2560
olar	-2561
isc	-2562
▁Carth	-2563
▁plant	-2564
▁individuals	-2565
▁Bra	-2566
▁gas	-2567
▁sust	-2568
II	-2569
iety	-2570
oura	-2571
semb	-2572
▁imm	-2573
undred	-2574
▁negot	-2575
▁factors	-2576
▁particip	-2577
onse	-2578
eroid	-2579
▁heat	-2580
▁poll	-2581
▁read	-2582
▁rock	-2583
▁wild	-2584
▁cases	-2585
▁slave	-2586
▁tropical	-2587
▁continent	-2588
.,	-2589
][8	-2590
▁era	-2591
▁mig	-2592
▁too	-2593
▁norm	-2594
▁brother	-2595
▁distinct	-2596
ott	-2597
▁Hol	-2598
▁den	-2599
▁laun	-2600
▁Athen	-2601
▁avail	-2602
▁continu	-2603
▁pattern	-2604
enh	-2605
ify	-2606
▁mot	-2607
▁exec	-2608
elling	-2609
opatra	-2610
▁value	-2611
men	-2612
quis	-2613
▁wealth	-2614
▁earlier	-2615
▁methods	-2616
▁relatively	-2617
▁territories	-2618
of	-2619
▁above	-2620
mediate	-2621
▁already	-2622
▁Australian	-2623
not	-2624
▁Fl	-2625
▁ver	-2626
▁docum	-2627
▁possib	-2628
▁Cleopatra	-2629
▁introduced	-2630
▁understanding	-2631
▁der	-2632
▁ill	-2633
▁sil	-2634
▁captured	-2635
▁response	-2636
▁ago	-2637
▁Norm	-2638
▁volcan	-2639
▁chemical	-2640
▁galaxies	-2641
▁Me	-2642
gress	-2643
▁meet	-2644
▁town	-2645
▁goods	-2646
▁himself	-2647
▁produce	-2648
▁writing	-2649
.5	-2650
,[3	-2651
▁Bo	-2652
▁Pal	-2653
▁Party	-2654
▁fleet	-2655
▁directly	-2656
▁emb	-2657
▁once	-2658
▁Ocean	-2659
▁moved	-2660
▁access	-2661
▁univers	-2662
▁25	-2663
▁Sy	-2664
▁di	-2665
onst	-2666
uture	-2667
▁Japanese	-2668
▁building	-2669
su	-2670
▁III	-2671
oming	-2672
▁Army	-2673
▁months	-2674
▁organisms	-2675
ches	-2676
▁test	-2677
▁Romans	-2678
▁private	-2679
▁surround	-2680
ulf	-2681
▁stri	-2682
▁bound	-2683
▁third	-2684
izations	-2685
▁societies	-2686
▁Sw	-2687
▁Pres	-2688
▁project	-2689
.[31	-2690
▁sex	-2691
light	-2692
▁archae	-2693
▁agriculture	-2694
▁agricultural	-2695
▁sw	-2696
▁God	-2697
▁command	-2698
▁asteroid	-2699
▁received	-2700
▁Ag	-2701
▁Az	-2702
▁cy	-2703
olved	-2704
▁full	-2705
▁today	-2706
reement	-2707
▁subsequ	-2708
.[30	-2709
itt	-2710
lem	-2711
▁slow	-2712
▁defeat	-2713
▁required	-2714
▁clou	-2715
▁side	-2716
▁fac	-2717
abeth	-2718
▁iron	-2719
▁mole	-2720
▁emperor	-2721
▁forests	-2722
hib	-2723
uls	-2724
otic	-2725
umer	-2726
▁ste	-2727
▁limited	-2728
▁contempor	-2729
▁primarily	-2730
ctions	-2731
▁aspect	-2732
▁fossil	-2733
▁Indigenous	-2734
ha	-2735
▁(2	-2736
utch	-2737
▁seem	-2738
▁action	-2739
▁future	-2740
▁Cor	-2741
▁ess	-2742
▁Emperor	-2743
▁radiation	-2744
isions	-2745
▁Babylon	-2746
▁pressure	-2747
▁returned	-2748
▁approximately	-2749
▁cop	-2750
▁house	-2751
izabeth	-2752
▁demonst	-2753
hest	-2754
▁red	-2755
▁crop	-2756
▁Henry	-2757
▁react	-2758
▁System	-2759
▁smaller	-2760
omm	-2761
▁ris	-2762
▁Jews	-2763
▁weak	-2764
▁Italian	-2765
▁Elizabeth	-2766
new	-2767
▁AD	-2768
rior	-2769
▁key	-2770
▁data	-2771
▁phot	-2772
▁labor	-2773
let	-2774
onic	-2775
▁tit	-2776
▁exch	-2777
▁myth	-2778
▁resulting	-2779
ls	-2780
▁sat	-2781
▁Since	-2782
▁father	-2783
cipl	-2784
enth	-2785
▁aim	-2786
▁exc	-2787
▁eastern	-2788
▁measure	-2789
▁structures	-2790
▁unc	-2791
iated	-2792
▁sequ	-2793
▁compet	-2794
▁failed	-2795
▁conduct	-2796
▁personal	-2797
arct	-2798
▁tri	-2799
▁discuss	-2800
▁original	-2801
00]	-2802
oving	-2803
▁Leon	-2804
▁except	-2805
▁mi	-2806
▁freed	-2807
▁ritual	-2808
."[1	-2809
▁179	-2810
rogen	-2811
▁arri	-2812
▁beliefs	-2813
▁reflect	-2814
enaissance	-2815
ps	-2816
ext	-2817
▁Man	-2818
][11	-2819
▁Canada	-2820
▁Bel	-2821
▁hyp	-2822
▁Greece	-2823
▁models	-2824
▁Another	-2825
▁monarch	-2826
▁started	-2827
▁Egyptian	-2828
")	-2829
▁Br	-2830
▁rot	-2831
▁come	-2832
▁type	-2833
▁assum	-2834
▁quick	-2835
▁Galile	-2836
▁concent	-2837
▁percent	-2838
▁separate	-2839
▁suggested	-2840
][9	-2841
zil	-2842
▁sun	-2843
avian	-2844
▁spir	-2845
icated	-2846
▁institut	-2847
udd	-2848
▁longer	-2849
▁widely	-2850
▁citizens	-2851
▁probably	-2852
imin	-2853
ixed	-2854
▁fell	-2855
▁wave	-2856
ornado	-2857
▁activities	-2858
-1	-2859
40	-2860
ift	-2861
▁If	-2862
▁ce	-2863
isted	-2864
▁Maya	-2865
▁head	-2866
▁nearly	-2867
▁practice	-2868
▁psychology	-2869
raft	-2870
▁deg	-2871
tical	-2872
▁Arch	-2873
▁mostly	-2874
ero	-2875
▁let	-2876
allen	-2877
▁wars	-2878
ointed	-2879
▁highly	-2880
▁definition	-2881
enic	-2882
ibal	-2883
ios	-2884
otam	-2885
▁bir	-2886
othes	-2887
▁create	-2888
▁reject	-2889
▁Congress	-2890
▁classical	-2891
▁construct	-2892
sp	-2893
sec	-2894
uan	-2895
ieval	-2896
▁marri	-2897
▁better	-2898
▁enough	-2899
▁streng	-2900
▁Renaissance	-2901
▁Cub	-2902
▁hor	-2903
ranean	-2904
▁home	-2905
▁emotion	-2906
▁She	-2907
▁powerful	-2908
▁Sen	-2909
▁vir	-2910
▁critic	-2911
▁problems	-2912
▁typically	-2913
▁Mal	-2914
▁irr	-2915
▁win	-2916
opotam	-2917
▁Assyrian	-2918
▁materials	-2919
emic	-2920
nces	-2921
pper	-2922
▁Lou	-2923
▁Way	-2924
▁mic	-2925
▁Columbus	-2926
▁declared	-2927
iterranean	-2928
tec	-2929
anned	-2930
ocratic	-2931
▁expected	-2932
▁property	-2933
▁increasingly	-2934
lan	-2935
▁30	-2936
▁Rober	-2937
▁conver	-2938
▁passed	-2939
▁school	-2940
▁Ma	-2941
cons	-2942
known	-2943
▁orbit	-2944
inister	-2945
▁distance	-2946
▁philosop	-2947
ebru	-2948
▁Ang	-2949
▁Hum	-2950
▁purp	-2951
▁revol	-2952
century	-2953
▁agreed	-2954
▁historian	-2955
▁Mediterranean	-2956
ev	-2957
▁inte	-2958
▁text	-2959
▁Treat	-2960
▁adapt	-2961
▁adopted	-2962
▁physics	-2963
▁conquered	-2964
][10	-2965
osing	-2966
ebruary	-2967
ilities	-2968
▁sustain	-2969
▁occurred	-2970
rone	-2971
▁book	-2972
arning	-2973
icient	-2974
▁exped	-2975
▁mainly	-2976
▁contain	-2977
▁analysis	-2978
▁reported	-2979
urs	-2980
▁Ga	-2981
▁Bar	-2982
asons	-2983
▁More	-2984
▁anti	-2985
▁host	-2986
▁Dutch	-2987
▁kings	-2988
▁storm	-2989
▁recycl	-2990
▁hundred	-2991
▁expanded	-2992
▁available	-2993
ana	-2994
hold	-2995
▁Ven	-2996
orestation	-2997
▁Tem	-2998
▁ecl	-2999
ously	-3000
▁circ	-3001
▁enem	-3002
▁soon	-3003
▁front	-3004
iations	-3005
iege	-3006
▁clear	-3007
▁sought	-3008
▁accepted	-3009
▁Mesopotam	-3010
dis	-3011
▁Hann	-3012
▁diss	-3013
▁ways	-3014
▁Indus	-3015
▁February	-3016
▁Northern	-3017
oral	-3018
▁Wall	-3019
▁fail	-3020
▁armies	-3021
▁counter	-3022
▁internal	-3023
▁consciousness	-3024
60	-3025
na	-3026
▁went	-3027
▁minor	-3028
▁extreme	-3029
▁genetic	-3030
▁Southern	-3031
▁Que	-3032
▁bey	-3033
odern	-3034
▁poor	-3035
▁formal	-3036
▁Antarct	-3037
▁earthqu	-3038
▁Augustus	-3039
▁President	-3040
ging	-3041
▁bus	-3042
▁sac	-3043
istan	-3044
▁fear	-3045
▁rates	-3046
▁Second	-3047
▁beyond	-3048
▁detect	-3049
▁nuclear	-3050
▁question	-3051
▁recorded	-3052
][12	-3053
▁best	-3054
▁First	-3055
orb	-3056
▁fr	-3057
burg	-3058
rate	-3059
avalry	-3060
lement	-3061
▁words	-3062
▁Byzantine	-3063
▁observations	-3064
off	-3065
▁dou	-3066
▁ice	-3067
▁inh	-3068
▁weap	-3069
ederal	-3070
▁Paris	-3071
▁leader	-3072
▁attempted	-3073
oria	-3074
▁reef	-3075
▁Milky	-3076
▁provin	-3077
▁recent	-3078
▁supply	-3079
▁treaty	-3080
▁decades	-3081
▁We	-3082
▁kil	-3083
▁run	-3084
▁deep	-3085
▁Treaty	-3086
▁working	-3087
▁commonly	-3088
▁numerous	-3089
oks	-3090
▁tend	-3091
▁merch	-3092
▁nations	-3093
▁identified	-3094
▁Vict	-3095
▁call	-3096
▁cris	-3097
ulated	-3098
▁categ	-3099
▁Brazil	-3100
▁president	-3101
mar	-3102
▁hol	-3103
▁fields	-3104
▁conserv	-3105
▁families	-3106
▁practices	-3107
my	-3108
▁Et	-3109
▁Old	-3110
▁base	-3111
▁care	-3112
▁tomb	-3113
istics	-3114
onents	-3115
▁Solar	-3116
▁apart	-3117
▁depend	-3118
▁prison	-3119
▁served	-3120
▁Despite	-3121
▁challen	-3122
▁results	-3123
▁Hannibal	-3124
▁policies	-3125
▁technology	-3126
▁vary	-3127
▁decreas	-3128
▁particles	-3129
▁influenced	-3130
uel	-3131
tole	-3132
aches	-3133
rival	-3134
▁cogn	-3135
▁neut	-3136
rative	-3137
▁Robert	-3138
▁interv	-3139
▁Galileo	-3140
▁founded	-3141
itational	-3142
▁presence	-3143
ama	-3144
ams	-3145
idal	-3146
uese	-3147
ested	-3148
▁wood	-3149
▁ruled	-3150
▁sites	-3151
▁texts	-3152
▁Intern	-3153
▁bodies	-3154
▁cavalry	-3155
▁destroyed	-3156
▁squ	-3157
▁active	-3158
▁rebell	-3159
▁180	-3160
▁Atl	-3161
▁Nor	-3162
ounced	-3163
▁James	-3164
▁Berlin	-3165
ographic	-3166
▁existence	-3167
.[32	-3168
resp	-3169
oring	-3170
ceeded	-3171
▁eclip	-3172
▁nucle	-3173
▁recon	-3174
▁occurs	-3175
▁ability	-3176
▁consequ	-3177
▁density	-3178
airs	-3179
▁efforts	-3180
▁industry	-3181
▁immediate	-3182
▁therefore	-3183
▁constitution	-3184
ino	-3185
▁stone	-3186
▁whole	-3187
▁prevent	-3188
▁tornado	-3189
▁warming	-3190
ray	-3191
▁("	-3192
▁But	-3193
▁Gre	-3194
▁wat	-3195
inian	-3196
▁variety	-3197
quisition	-3198
▁resulted	-3199
▁violence	-3200
▁Portuguese	-3201
▁Pom	-3202
▁driv	-3203
arliam	-3204
.[33	-3205
▁mut	-3206
▁Ptole	-3207
▁stated	-3208
▁learning	-3209
mon	-3210
agne	-3211
ient	-3212
▁Crus	-3213
▁spect	-3214
▁General	-3215
▁numbers	-3216
▁construction	-3217
edy	-3218
cest	-3219
ourn	-3220
▁coal	-3221
▁workers	-3222
▁Confeder	-3223
▁marriage	-3224
The	-3225
apse	-3226
ills	-3227
iple	-3228
▁claimed	-3229
▁emerged	-3230
▁interpret	-3231
▁Spart	-3232
▁allies	-3233
▁Protest	-3234
▁controlled	-3235
▁institutions	-3236
][15	-3237
term	-3238
▁live	-3239
▁animal	-3240
▁damage	-3241
▁domest	-3242
▁motion	-3243
▁Nations	-3244
▁contemporary	-3245
rs	-3246
see	-3247
racy	-3248
▁jud	-3249
▁frag	-3250
▁rein	-3251
▁break	-3252
▁island	-3253
▁native	-3254
▁decline	-3255
▁quickly	-3256
rect	-3257
unar	-3258
▁...	-3259
▁ten	-3260
▁Kenn	-3261
▁final	-3262
lemagne	-3263
▁causes	-3264
▁arrived	-3265
▁massive	-3266
▁constant	-3267
▁ecosystems	-3268
▁gravitational	-3269
ih	-3270
▁carried	-3271
arliament	-3272
▁distingu	-3273
▁launched	-3274
▁traditions	-3275
▁Charlemagne	-3276
oke	-3277
▁Gl	-3278
][14	-3279
▁nar	-3280
▁kind	-3281
iments	-3282
▁Early	-3283
▁Antony	-3284
▁weather	-3285
▁features	-3286
oney	-3287
▁grew	-3288
enhouse	-3289
▁Histor	-3290
▁growing	-3291
▁situation	-3292
iodiversity	-3293
▁previously	-3294
▁Christianity	-3295
][13	-3296
▁suc	-3297
▁lines	-3298
▁naval	-3299
▁rural	-3300
▁Valley	-3301
▁church	-3302
ety	-3303
imil	-3304
▁mind	-3305
▁heavy	-3306
▁Commun	-3307
▁Philip	-3308
▁ancest	-3309
▁ethnic	-3310
▁emissions	-3311
▁thousands	-3312
3.	-3313
bow	-3314
▁La	-3315
▁Bec	-3316
urity	-3317
▁cust	-3318
▁Aztec	-3319
▁basic	-3320
▁legis	-3321
▁speed	-3322
▁fought	-3323
▁marked	-3324
▁placed	-3325
▁actions	-3326
▁civilization	-3327
▁24	-3328
anks	-3329
▁cut	-3330
▁dead	-3331
▁cycle	-3332
▁withd	-3333
respond	-3334
▁fundam	-3335
ribution	-3336
▁opposed	-3337
▁creation	-3338
de	-3339
irm	-3340
leb	-3341
nov	-3342
▁Ro	-3343
angel	-3344
▁imag	-3345
▁miss	-3346
▁basis	-3347
▁rough	-3348
▁Pacific	-3349
▁conclud	-3350
▁exchange	-3351
1.	-3352
oot	-3353
aled	-3354
▁sal	-3355
ender	-3356
▁step	-3357
▁subst	-3358
▁integr	-3359
▁discovery	-3360
ech	-3361
aint	-3362
▁Mic	-3363
▁har	-3364
▁true	-3365
▁Louis	-3366
ulation	-3367
▁center	-3368
▁applied	-3369
▁located	-3370
▁profess	-3371
use	-3372
vant	-3373
▁Vir	-3374
▁tar	-3375
▁sens	-3376
▁below	-3377
▁mother	-3378
win	-3379
▁core	-3380
▁Civil	-3381
▁always	-3382
▁ordered	-3383
▁compared	-3384
▁transfer	-3385
▁resistance	-3386
70	-3387
gle	-3388
oan	-3389
abor	-3390
style	-3391
inated	-3392
▁river	-3393
▁Edward	-3394
▁mental	-3395
▁aspects	-3396
▁thinking	-3397
▁irrigation	-3398
▁administration	-3399
uke	-3400
▁Gr	-3401
▁et	-3402
▁cat	-3403
ultan	-3404
▁Both	-3405
▁Arist	-3406
▁units	-3407
▁Follow	-3408
▁achieve	-3409
▁figures	-3410
ym	-3411
avy	-3412
ped	-3413
▁via	-3414
ondon	-3415
▁impl	-3416
▁prec	-3417
▁instrum	-3418
▁extended	-3419
▁standard	-3420
▁suggests	-3421
▁greenhouse	-3422
▁Dep	-3423
antry	-3424
▁Under	-3425
▁London	-3426
▁crisis	-3427
▁periods	-3428
▁negative	-3429
▁significantly	-3430
▁pen	-3431
field	-3432
▁date	-3433
inction	-3434
▁border	-3435
▁commer	-3436
▁Islamic	-3437
▁direction	-3438
▁settlement	-3439
▁architecture	-3440
25	-3441
uge	-3442
rang	-3443
▁alt	-3444
▁cod	-3445
heast	-3446
lying	-3447
ributed	-3448
▁signed	-3449
▁transform	-3450
▁transport	-3451
▁scientists	-3452
erc	-3453
ume	-3454
▁Te	-3455
oned	-3456
▁Pompe	-3457
▁compar	-3458
▁engine	-3459
▁issues	-3460
▁market	-3461
▁perman	-3462
▁friends	-3463
▁creating	-3464
▁creativity	-3465
equ	-3466
ania	-3467
▁won	-3468
▁Budd	-3469
▁Ming	-3470
▁possess	-3471
▁reduced	-3472
▁replaced	-3473
10	-3474
▁CO	-3475
ardo	-3476
▁oil	-3477
▁say	-3478
▁Coun	-3479
▁Inst	-3480
▁incor	-3481
▁style	-3482
▁Following	-3483
▁correspond	-3484
[3	-3485
ald	-3486
greg	-3487
▁189	-3488
▁eas	-3489
idesp	-3490
orial	-3491
osion	-3492
inople	-3493
▁Etrus	-3494
▁depict	-3495
▁gravity	-3496
idespread	-3497
▁multiple	-3498
int	-3499
aper	-3500
bert	-3501
rupt	-3502
▁amb	-3503
▁cle	-3504
▁dri	-3505
celer	-3506
▁abol	-3507
▁reforms	-3508
▁medieval	-3509
▁services	-3510
▁pollution	-3511
▁hom	-3512
ables	-3513
▁vast	-3514
ground	-3515
▁suppl	-3516
archers	-3517
▁Govern	-3518
▁Senate	-3519
▁Because	-3520
▁Americas	-3521
▁Constantinople	-3522
wa	-3523
▁Ev	-3524
haps	-3525
ighb	-3526
force	-3527
▁acqu	-3528
▁excav	-3529
▁party	-3530
▁strug	-3531
agement	-3532
▁played	-3533
▁movements	-3534
NC	-3535
part	-3536
▁Mon	-3537
iques	-3538
▁Mars	-3539
▁burn	-3540
▁whom	-3541
▁entered	-3542
▁kilomet	-3543
▁positive	-3544
▁essential	-3545
▁responsible	-3546
ape	-3547
gar	-3548
oper	-3549
▁log	-3550
▁keep	-3551
▁latter	-3552
▁refused	-3553
▁collapse	-3554
▁Americans	-3555
rin	-3556
▁Vi	-3557
aped	-3558
ustrial	-3559
▁Octavian	-3560
▁opposition	-3561
15	-3562
▁fort	-3563
▁cloth	-3564
▁prior	-3565
ologist	-3566
▁extent	-3567
▁gained	-3568
▁throne	-3569
▁alliance	-3570
▁initially	-3571
▁University	-3572
▁widespread	-3573
▁mathematics	-3574
▁26	-3575
.[34	-3576
ords	-3577
▁Mor	-3578
▁Pho	-3579
▁Sal	-3580
ength	-3581
▁Kennedy	-3582
▁discipl	-3583
li	-3584
▁Co	-3585
][18	-3586
▁und	-3587
ounds	-3588
▁harm	-3589
▁rare	-3590
▁vers	-3591
▁siege	-3592
▁therm	-3593
▁altern	-3594
▁weapons	-3595
▁combined	-3596
▁principles	-3597
rd	-3598
gent	-3599
ortun	-3600
▁learn	-3601
▁affected	-3602
▁dominant	-3603
9.	-3604
ya	-3605
▁lif	-3606
▁comput	-3607
▁helped	-3608
▁composed	-3609
▁products	-3610
▁appointed	-3611
▁officials	-3612
▁Sl	-3613
▁Tw	-3614
▁ft	-3615
fare	-3616
math	-3617
insula	-3618
▁eight	-3619
▁renew	-3620
ologies	-3621
▁patterns	-3622
▁prominent	-3623
isp	-3624
▁1,	-3625
.[4]	-3626
▁yet	-3627
ellar	-3628
otions	-3629
▁names	-3630
▁tried	-3631
▁behind	-3632
▁despite	-3633
▁encoura	-3634
▁sociology	-3635
rad	-3636
▁{\	-3637
ctor	-3638
kish	-3639
▁sus	-3640
▁Over	-3641
▁deal	-3642
forest	-3643
ishing	-3644
▁waves	-3645
▁cannot	-3646
▁famous	-3647
▁advance	-3648
▁context	-3649
▁hypothes	-3650
▁ox	-3651
heid	-3652
hips	-3653
pped	-3654
▁Comp	-3655
▁walls	-3656
rations	-3657
▁George	-3658
▁neighb	-3659
▁disease	-3660
▁visible	-3661
▁anthropology	-3662
fall	-3663
▁Han	-3664
▁repe	-3665
▁rulers	-3666
▁severe	-3667
oured	-3668
▁stim	-3669
▁Buddh	-3670
▁finan	-3671
▁meant	-3672
▁parent	-3673
▁appears	-3674
▁appeared	-3675
▁subsequent	-3676
▁understood	-3677
cape	-3678
year	-3679
▁178	-3680
scale	-3681
▁Cont	-3682
▁Pope	-3683
▁issue	-3684
▁lunar	-3685
raction	-3686
▁toward	-3687
que	-3688
▁23	-3689
▁Su	-3690
▁fil	-3691
adian	-3692
heric	-3693
oting	-3694
▁Inca	-3695
▁give	-3696
▁hole	-3697
▁brain	-3698
▁surre	-3699
▁Ancient	-3700
▁acceler	-3701
▁Leonardo	-3702
▁agreement	-3703
▁fundamental	-3704
▁1.	-3705
][16	-3706
wide	-3707
▁flu	-3708
where	-3709
▁inher	-3710
▁millenn	-3711
▁rapidly	-3712
▁advanced	-3713
▁electric	-3714
▁regional	-3715
▁International	-3716
esc	-3717
lers	-3718
rael	-3719
▁177	-3720
▁Dem	-3721
▁sen	-3722
ening	-3723
▁Their	-3724
▁birth	-3725
▁tribes	-3726
▁values	-3727
▁schools	-3728
▁deforestation	-3729
erb	-3730
rid	-3731
omas	-3732
▁190	-3733
oined	-3734
oints	-3735
▁ever	-3736
▁peas	-3737
▁daugh	-3738
▁money	-3739
▁retain	-3740
▁remaining	-3741
,[4	-3742
▁50	-3743
▁beg	-3744
▁cou	-3745
craft	-3746
▁1960	-3747
▁monum	-3748
▁consum	-3749
▁theore	-3750
▁Atlantic	-3751
▁apparent	-3752
▁Inquisition	-3753
ias	-3754
west	-3755
▁bring	-3756
▁trees	-3757
▁atmosp	-3758
▁speech	-3759
▁roughly	-3760
mit	-3761
ements	-3762
▁Sumer	-3763
▁femin	-3764
▁Harapp	-3765
▁places	-3766
▁granted	-3767
▁effective	-3768
▁necessary	-3769
8.	-3770
–19	-3771
origin	-3772
▁aband	-3773
▁advant	-3774
▁claims	-3775
▁express	-3776
▁protection	-3777
500	-3778
▁Yor	-3779
▁reve	-3780
▁virt	-3781
▁crops	-3782
▁business	-3783
▁techniques	-3784
▁understand	-3785
ores	-3786
▁Its	-3787
▁pal	-3788
astic	-3789
▁Ages	-3790
▁Rich	-3791
▁path	-3792
ternal	-3793
▁State	-3794
▁Greeks	-3795
▁assemb	-3796
▁Council	-3797
▁election	-3798
▁progress	-3799
▁implement	-3800
erd	-3801
eum	-3802
ille	-3803
▁mag	-3804
▁lived	-3805
▁ruler	-3806
▁figure	-3807
▁turned	-3808
atherine	-3809
▁causing	-3810
▁Imperial	-3811
▁attention	-3812
ka	-3813
▁22	-3814
wing	-3815
.[25]	-3816
ulate	-3817
▁Cast	-3818
▁Cuba	-3819
▁Soci	-3820
▁Thus	-3821
ension	-3822
▁habit	-3823
▁plate	-3824
▁title	-3825
▁islands	-3826
▁respond	-3827
▁warfare	-3828
▁fighting	-3829
▁additional	-3830
][17	-3831
emen	-3832
▁Dar	-3833
▁Iran	-3834
▁oral	-3835
▁vill	-3836
anning	-3837
▁perspect	-3838
▁provinces	-3839
▁properties	-3840
▁Mesopotamia	-3841
iant	-3842
wise	-3843
ellig	-3844
ensus	-3845
iable	-3846
▁gases	-3847
▁middle	-3848
▁Phoenic	-3849
▁Victoria	-3850
▁accounts	-3851
▁Catherine	-3852
▁biodiversity	-3853
ban	-3854
such	-3855
▁hun	-3856
ington	-3857
▁exact	-3858
▁lingu	-3859
▁phase	-3860
▁Thomas	-3861
▁explain	-3862
▁incorpor	-3863
▁possibly	-3864
▁importance	-3865
▁influential	-3866
rary	-3867
▁Jup	-3868
ocracy	-3869
▁Athens	-3870
▁showed	-3871
▁Aristot	-3872
▁changed	-3873
▁contact	-3874
▁elected	-3875
▁becoming	-3876
▁examples	-3877
ned	-3878
pol	-3879
▁Art	-3880
▁pie	-3881
▁wid	-3882
igned	-3883
▁Such	-3884
▁hous	-3885
▁male	-3886
itudes	-3887
▁cells	-3888
▁equal	-3889
▁focused	-3890
▁service	-3891
▁studied	-3892
▁kingdoms	-3893
▁differences	-3894
cks	-3895
ilk	-3896
oses	-3897
▁Dav	-3898
rates	-3899
▁cere	-3900
▁face	-3901
▁look	-3902
00,000	-3903
▁comets	-3904
▁joined	-3905
▁critical	-3906
▁phenomena	-3907
▁40	-3908
▁mom	-3909
▁Class	-3910
▁cloud	-3911
▁report	-3912
▁coastal	-3913
▁invaded	-3914
▁strateg	-3915
▁substant	-3916
.[20]	-3917
based	-3918
▁carry	-3919
▁commit	-3920
▁rejected	-3921
ret	-3922
▁Pen	-3923
▁emp	-3924
.[22]	-3925
claim	-3926
▁Mart	-3927
utions	-3928
▁capac	-3929
▁Jewish	-3930
▁gradually	-3931
ste	-3932
.[37]	-3933
uther	-3934
▁mach	-3935
▁Mount	-3936
▁Stone	-3937
▁Further	-3938
▁involve	-3939
▁employed	-3940
▁opportun	-3941
12	-3942
amm	-3943
elt	-3944
lig	-3945
ests	-3946
alism	-3947
▁stop	-3948
▁avoid	-3949
▁calcul	-3950
▁initial	-3951
▁require	-3952
▁describe	-3953
▁emotions	-3954
▁Bet	-3955
▁bal	-3956
▁saf	-3957
▁House	-3958
▁artic	-3959
▁dance	-3960
▁galaxy	-3961
▁refers	-3962
▁taking	-3963
▁transl	-3964
▁believe	-3965
▁erosion	-3966
▁students	-3967
▁principle	-3968
▁continental	-3969
);	-3970
5.	-3971
.[2]	-3972
.[8]	-3973
▁moving	-3974
▁things	-3975
▁freedom	-3976
▁developing	-3977
▁temperatures	-3978
ares	-3979
elled	-3980
▁hard	-3981
▁noted	-3982
▁allowing	-3983
▁instance	-3984
▁governments	-3985
bo	-3986
axim	-3987
rons	-3988
▁hot	-3989
.[32]	-3990
illed	-3991
▁acad	-3992
▁risk	-3993
cluding	-3994
▁Michel	-3995
▁height	-3996
▁secret	-3997
▁perhaps	-3998
▁attacked	-3999
indu	-4000
note	-4001
acedon	-4002
iction	-4003
▁Franc	-4004
▁Royal	-4005
ibility	-4006
▁course	-4007
▁sexual	-4008
▁stress	-4009
ications	-4010
▁records	-4011
▁globalization	-4012
eor	-4013
▁Di	-4014
▁Eth	-4015
▁esc	-4016
▁1980	-4017
▁Magn	-4018
▁cast	-4019
▁seven	-4020
▁degree	-4021
▁labour	-4022
▁worked	-4023
original	-4024
omy	-4025
▁hon	-4026
▁frame	-4027
▁demand	-4028
▁Macedon	-4029
▁decision	-4030
▁Protestant	-4031
▁experienced	-4032
den	-4033
xes	-4034
▁Qu	-4035
opol	-4036
ulpt	-4037
usal	-4038
▁mob	-4039
ately	-4040
ufact	-4041
▁feed	-4042
▁pros	-4043
▁Newton	-4044
▁absorb	-4045
▁obtain	-4046
▁sculpt	-4047
▁continue	-4048
▁location	-4049
▁determined	-4050
aff	-4051
spe	-4052
▁0.	-4053
.[35	-4054
][19	-4055
oved	-4056
▁eru	-4057
▁pap	-4058
.[36]	-4059
▁relat	-4060
▁percept	-4061
▁regarded	-4062
▁expedition	-4063
▁researchers	-4064
ms	-4065
hev	-4066
oes	-4067
ply	-4068
umn	-4069
cular	-4070
erved	-4071
▁Cons	-4072
▁Swed	-4073
▁Wars	-4074
▁gain	-4075
▁hier	-4076
▁Asian	-4077
▁crust	-4078
▁speak	-4079
▁Common	-4080
▁Israel	-4081
▁Jupiter	-4082
▁leadership	-4083
▁transition	-4084
4.	-4085
▁$	-4086
.[36	-4087
▁born	-4088
▁Const	-4089
▁journ	-4090
▁Bronze	-4091
▁precip	-4092
▁improve	-4093
▁manufact	-4094
▁campaigns	-4095
▁extensive	-4096
▁succeeded	-4097
▁(3	-4098
.[5]	-4099
▁mur	-4100
▁nut	-4101
▁ple	-4102
.[17]	-4103
▁Khan	-4104
▁quar	-4105
▁Later	-4106
▁chief	-4107
▁upper	-4108
▁debate	-4109
▁display	-4110
▁feature	-4111
▁highest	-4112
rif	-4113
.[37	-4114
.[6]	-4115
▁Mad	-4116
▁cho	-4117
▁High	-4118
▁Mary	-4119
▁done	-4120
▁ones	-4121
▁genes	-4122
▁office	-4123
▁Carthage	-4124
▁occupied	-4125
▁organized	-4126
▁relationships	-4127
ool	-4128
▁Ec	-4129
back	-4130
erts	-4131
ithic	-4132
▁alle	-4133
▁pric	-4134
▁Sever	-4135
▁dynam	-4136
▁tempor	-4137
▁rainbow	-4138
▁concepts	-4139
▁surrounding	-4140
▁interactions	-4141
atol	-4142
▁Min	-4143
▁Hitt	-4144
▁sail	-4145
▁derived	-4146
▁landing	-4147
▁division	-4148
▁politics	-4149
▁lightning	-4150
▁universal	-4151
▁collection	-4152
▁interaction	-4153
ii	-4154
–2	-4155
▁27	-4156
▁CE	-4157
▁ut	-4158
▁Mat	-4159
▁cru	-4160
irect	-4161
▁bran	-4162
▁dram	-4163
▁feel	-4164
▁books	-4165
▁limit	-4166
▁charge	-4167
▁attempts	-4168
▁mountain	-4169
▁cognitive	-4170
▁ultimately	-4171
▁negotiations	-4172
warf	-4173
▁Jul	-4174
▁sem	-4175
.[21]	-4176
ether	-4177
usion	-4178
▁cred	-4179
▁wife	-4180
itable	-4181
mitted	-4182
▁faced	-4183
entions	-4184
▁Allied	-4185
▁moment	-4186
▁specif	-4187
▁quality	-4188
▁biological	-4189
SR	-4190
▁IV	-4191
clar	-4192
.[10]	-4193
.[23]	-4194
▁Peter	-4195
ensions	-4196
▁accomp	-4197
▁centre	-4198
▁factor	-4199
▁reduce	-4200
▁season	-4201
▁viewed	-4202
▁closely	-4203
▁republic	-4204
▁financial	-4205
.[15]	-4206
.[29]	-4207
irmed	-4208
▁micro	-4209
▁shape	-4210
▁content	-4211
▁eclipse	-4212
▁leaving	-4213
▁Industrial	-4214
▁completely	-4215
han	-4216
.[1]	-4217
more	-4218
rief	-4219
▁Jer	-4220
▁wee	-4221
verse	-4222
▁1970	-4223
▁argum	-4224
▁Luther	-4225
▁issued	-4226
▁infantry	-4227
▁magnetic	-4228
2.	-4229
ras	-4230
ror	-4231
otes	-4232
▁arms	-4233
▁blood	-4234
▁motiv	-4235
▁Poland	-4236
▁argues	-4237
▁waters	-4238
▁classes	-4239
▁serious	-4240
▁greatest	-4241
▁strength	-4242
SA	-4243
ems	-4244
amer	-4245
inet	-4246
▁spl	-4247
▁Paul	-4248
▁dipl	-4249
▁member	-4250
▁decided	-4251
▁greatly	-4252
▁atmospheric	-4253
▁da	-4254
.[49]	-4255
cules	-4256
▁isol	-4257
▁uses	-4258
▁tidal	-4259
▁belong	-4260
▁deaths	-4261
▁inhabit	-4262
▁capacity	-4263
▁contributed	-4264
▁represented	-4265
ett	-4266
etry	-4267
ully	-4268
▁ANC	-4269
▁gar	-4270
▁York	-4271
▁comet	-4272
▁towns	-4273
▁assass	-4274
▁colony	-4275
▁length	-4276
▁proved	-4277
▁regime	-4278
▁Between	-4279
▁Francis	-4280
▁settled	-4281
▁unknown	-4282
▁intellig	-4283
▁advantage	-4284
▁maintained	-4285
oe	-4286
bal	-4287
erve	-4288
▁aur	-4289
.[14]	-4290
▁clos	-4291
▁cool	-4292
▁behavi	-4293
▁unique	-4294
▁UN	-4295
ghis	-4296
.[33]	-4297
.[44]	-4298
essel	-4299
▁subs	-4300
ortion	-4301
▁night	-4302
▁perce	-4303
▁assess	-4304
▁contro	-4305
▁Soviets	-4306
▁external	-4307
▁identity	-4308
▁subjects	-4309
▁asteroids	-4310
▁buildings	-4311
▁concerned	-4312
▁successor	-4313
ili	-4314
iox	-4315
▁Hu	-4316
▁Mu	-4317
▁cas	-4318
.[26]	-4319
.[58]	-4320
▁rich	-4321
▁loyal	-4322
▁outer	-4323
mission	-4324
▁recognized	-4325
adic	-4326
▁sed	-4327
.[11]	-4328
actic	-4329
icial	-4330
under	-4331
▁goal	-4332
▁gods	-4333
ellect	-4334
▁celeb	-4335
▁explo	-4336
▁taxes	-4337
▁ethics	-4338
▁heavily	-4339
▁hydrogen	-4340
▁involves	-4341
▁convention	-4342
put	-4343
raw	-4344
vey	-4345
.[7]	-4346
▁Ter	-4347
▁pun	-4348
.[24]	-4349
water	-4350
▁1950	-4351
▁diox	-4352
▁accur	-4353
▁armed	-4354
▁older	-4355
▁shown	-4356
▁theor	-4357
display	-4358
▁effort	-4359
▁shared	-4360
▁symbol	-4361
▁attacks	-4362
▁daughter	-4363
▁practical	-4364
▁difference	-4365
▁operations	-4366
displaystyle	-4367
7.	-4368
oll	-4369
▁185	-4370
nthes	-4371
▁Kore	-4372
▁rang	-4373
racted	-4374
states	-4375
▁hours	-4376
▁wildf	-4377
▁Harold	-4378
▁federal	-4379
▁sequence	-4380
▁suffered	-4381
▁happiness	-4382
▁philosophers	-4383
bs	-4384
olid	-4385
phic	-4386
.[19]	-4387
aging	-4388
stein	-4389
▁zone	-4390
▁argue	-4391
▁paper	-4392
▁desert	-4393
▁explan	-4394
▁released	-4395
▁increases	-4396
▁Aboriginal	-4397
▁commission	-4398
▁organization	-4399
▁successfully	-4400
rac	-4401
▁28	-4402
][21	-4403
ises	-4404
▁Sic	-4405
▁aid	-4406
works	-4407
▁feud	-4408
▁paid	-4409
▁unit	-4410
▁bronze	-4411
▁defend	-4412
▁network	-4413
▁clothing	-4414
▁measures	-4415
ani	-4416
▁183	-4417
▁Fin	-4418
▁opt	-4419
onial	-4420
which	-4421
▁mess	-4422
ompass	-4423
▁fully	-4424
▁veget	-4425
ashington	-4426
▁inscript	-4427
▁presented	-4428
▁frequently	-4429
▁originally	-4430
As	-4431
line	-4432
ograp	-4433
▁Human	-4434
▁route	-4435
▁diplom	-4436
▁Genghis	-4437
▁married	-4438
▁notably	-4439
▁concerns	-4440
▁intended	-4441
▁Antarctica	-4442
▁Sm	-4443
uing	-4444
▁rat	-4445
.[42]	-4446
istry	-4447
▁Hung	-4448
▁Late	-4449
angelo	-4450
ifying	-4451
▁prote	-4452
▁share	-4453
▁raised	-4454
▁summer	-4455
▁announced	-4456
▁constructed	-4457
[5	-4458
yr	-4459
car	-4460
ault	-4461
ocks	-4462
ulus	-4463
▁(18	-4464
▁Red	-4465
▁San	-4466
▁ded	-4467
▁dry	-4468
▁syn	-4469
.[34]	-4470
ceans	-4471
iform	-4472
asions	-4473
conomic	-4474
▁Virgin	-4475
▁arrest	-4476
▁points	-4477
▁silver	-4478
▁engaged	-4479
▁mission	-4480
▁neutral	-4481
▁purpose	-4482
▁actually	-4483
▁dominated	-4484
▁religions	-4485
▁Michelangelo	-4486
ora	-4487
▁Lu	-4488
rich	-4489
unic	-4490
▁nom	-4491
.[16]	-4492
▁Cart	-4493
▁list	-4494
aching	-4495
▁dwarf	-4496
▁enemy	-4497
▁Viking	-4498
▁annual	-4499
▁rivers	-4500
▁Carthag	-4501
▁merchants	-4502
▁positions	-4503
▁composition	-4504
aved	-4505
ocal	-4506
ream	-4507
▁hop	-4508
.[31]	-4509
.[67]	-4510
atter	-4511
▁2000	-4512
▁Liber	-4513
▁Pruss	-4514
▁faith	-4515
▁horiz	-4516
▁Anatol	-4517
▁reprodu	-4518
▁recycling	-4519
▁effectively	-4520
eal	-4521
.[38	-4522
.[9]	-4523
▁Pre	-4524
▁tas	-4525
.[12]	-4526
.[28]	-4527
.[47]	-4528
ister	-4529
▁Rese	-4530
▁advoc	-4531
▁brief	-4532
▁nearby	-4533
▁Islands	-4534
▁dioxide	-4535
▁farming	-4536
▁impacts	-4537
▁Washington	-4538
▁management	-4539
▁destruction	-4540
▁philosophical	-4541
6.	-4542
cha	-4543
▁Mo	-4544
▁NA	-4545
iced	-4546
izes	-4547
unam	-4548
▁get	-4549
▁nor	-4550
.[30]	-4551
ading	-4552
while	-4553
▁Joan	-4554
▁block	-4555
▁holes	-4556
▁League	-4557
▁portra	-4558
▁vessel	-4559
▁offered	-4560
▁whereas	-4561
▁planetary	-4562
▁institution	-4563
▁mathematical	-4564
▁establishment	-4565
,[5	-4566
aud	-4567
▁Pet	-4568
.[38]	-4569
.[72]	-4570
ronic	-4571
▁Count	-4572
▁crown	-4573
▁simple	-4574
▁pirates	-4575
▁reasons	-4576
▁describes	-4577
▁settlements	-4578
24	-4579
▁150	-4580
▁why	-4581
.[27]	-4582
.[45]	-4583
▁crus	-4584
itness	-4585
▁added	-4586
▁Reform	-4587
▁arrang	-4588
▁compan	-4589
outheast	-4590
▁Germans	-4591
▁Several	-4592
▁encompass	-4593
▁rebellion	-4594
▁Christians	-4595
hu	-4596
min	-4597
uns	-4598
yles	-4599
▁mis	-4600
.[54]	-4601
.[74]	-4602
onent	-4603
▁2020	-4604
▁Syria	-4605
▁annex	-4606
▁chann	-4607
▁compl	-4608
▁coral	-4609
▁elite	-4610
▁radio	-4611
▁think	-4612
▁gender	-4613
▁Ptolemy	-4614
▁element	-4615
▁meeting	-4616
▁contains	-4617
▁domestic	-4618
▁minister	-4619
▁concluded	-4620
▁experiences	-4621
cer	-4622
rim	-4623
uras	-4624
▁Pat	-4625
.[39]	-4626
▁Miss	-4627
▁Plan	-4628
▁asked	-4629
▁makes	-4630
▁media	-4631
▁oldest	-4632
▁sovere	-4633
▁address	-4634
▁authors	-4635
▁diverse	-4636
▁intellect	-4637
▁permanent	-4638
▁phenomenon	-4639
90	-4640
ij	-4641
yg	-4642
uty	-4643
▁ts	-4644
▁187	-4645
▁Reg	-4646
▁Res	-4647
.[51]	-4648
going	-4649
▁Fred	-4650
▁diam	-4651
▁peak	-4652
▁shif	-4653
▁alone	-4654
▁analy	-4655
▁broke	-4656
▁comes	-4657
▁metal	-4658
▁miles	-4659
▁month	-4660
olithic	-4661
▁detail	-4662
▁giving	-4663
▁planned	-4664
▁descript	-4665
▁investig	-4666
▁rational	-4667
▁Europeans	-4668
▁diversity	-4669
oul	-4670
.[3]	-4671
][20	-4672
yram	-4673
▁Spe	-4674
▁ang	-4675
.[66]	-4676
elesc	-4677
▁1990	-4678
▁script	-4679
▁History	-4680
▁capture	-4681
▁removed	-4682
▁alternative	-4683
rav	-4684
▁Rh	-4685
▁ax	-4686
idge	-4687
▁che	-4688
▁sym	-4689
▁vel	-4690
.[52]	-4691
.[73]	-4692
▁Duke	-4693
▁Each	-4694
▁Land	-4695
▁dust	-4696
▁heir	-4697
▁reefs	-4698
▁split	-4699
▁square	-4700
▁finally	-4701
▁overall	-4702
▁molecules	-4703
▁kilometres	-4704
,"	-4705
ows	-4706
▁Mos	-4707
▁dro	-4708
.[35]	-4709
.[46]	-4710
itime	-4711
rolls	-4712
▁Bang	-4713
▁Scot	-4714
▁kept	-4715
▁prep	-4716
▁Anglo	-4717
▁Saint	-4718
▁arist	-4719
▁decis	-4720
▁visit	-4721
▁Allies	-4722
▁dating	-4723
▁Through	-4724
▁mention	-4725
▁struggle	-4726
▁ecological	-4727
cast	-4728
icit	-4729
▁Bon	-4730
▁Jud	-4731
▁ign	-4732
.[75]	-4733
▁innov	-4734
▁calend	-4735
▁satell	-4736
▁spring	-4737
▁suppor	-4738
▁forming	-4739
including	-4740
▁security	-4741
▁Aristotle	-4742
▁determine	-4743
▁relativity	-4744
–3	-4745
chu	-4746
ibb	-4747
▁Ak	-4748
born	-4749
come	-4750
time	-4751
▁Two	-4752
.[62]	-4753
▁bomb	-4754
ightly	-4755
▁newly	-4756
▁solid	-4757
▁waste	-4758
▁divine	-4759
▁linked	-4760
▁princip	-4761
▁Etruscan	-4762
▁achieved	-4763
▁entirely	-4764
▁starting	-4765
ifications	-4766
▁conducted	-4767
▁commercial	-4768
▁millennium	-4769
▁observation	-4770
▁perspective	-4771
▁astronomical	-4772
itz	-4773
pro	-4774
inal	-4775
.[56]	-4776
▁dang	-4777
▁join	-4778
▁goals	-4779
▁layer	-4780
▁lives	-4781
▁needs	-4782
▁sides	-4783
▁trial	-4784
▁driven	-4785
▁routes	-4786
▁tribut	-4787
▁Richard	-4788
▁farmers	-4789
▁astronomy	-4790
▁providing	-4791
het	-4792
raq	-4793
▁Rel	-4794
.[13]	-4795
hered	-4796
itute	-4797
otton	-4798
▁Among	-4799
▁David	-4800
▁inside	-4801
▁opened	-4802
▁temple	-4803
▁Mexican	-4804
▁covered	-4805
▁sciences	-4806
▁earthquake	-4807
▁generation	-4808
▁legislation	-4809
▁characteristics	-4810
23	-4811
oor	-4812
tee	-4813
▁Ac	-4814
andy	-4815
▁Bas	-4816
▁Mem	-4817
.[43]	-4818
rison	-4819
▁trig	-4820
▁enter	-4821
▁immig	-4822
ultural	-4823
▁winter	-4824
▁functions	-4825
▁considerable	-4826
▁Ke	-4827
▁You	-4828
.[18]	-4829
.[48]	-4830
.[53]	-4831
.[77]	-4832
▁Peru	-4833
idents	-4834
rising	-4835
▁Hindu	-4836
▁dates	-4837
▁shows	-4838
related	-4839
▁oceans	-4840
▁traits	-4841
▁Austria	-4842
▁evolved	-4843
▁facilit	-4844
▁Portugal	-4845
▁province	-4846
▁condition	-4847
▁reasoning	-4848
ala	-4849
eed	-4850
teen	-4851
▁Ass	-4852
▁Bay	-4853
▁Var	-4854
acing	-4855
▁Kush	-4856
▁drop	-4857
▁nutri	-4858
▁serve	-4859
claimed	-4860
▁depart	-4861
▁female	-4862
▁existed	-4863
▁failure	-4864
▁accompan	-4865
▁executed	-4866
▁existing	-4867
▁contained	-4868
▁expressed	-4869
▁interests	-4870
▁inhabitants	-4871
▁distribution	-4872
▁organizations	-4873
▁archaeological	-4874
mal	-4875
▁Cr	-4876
cles	-4877
rong	-4878
▁Cur	-4879
ching	-4880
iring	-4881
oplan	-4882
ropri	-4883
▁doct	-4884
▁fres	-4885
▁qual	-4886
▁Flore	-4887
▁lasted	-4888
▁losses	-4889
▁benefits	-4890
▁cyclones	-4891
▁volcanic	-4892
▁prisoners	-4893
53	-4894
agan	-4895
arge	-4896
hood	-4897
onia	-4898
ygen	-4899
▁Sam	-4900
▁bes	-4901
▁nit	-4902
.[41]	-4903
▁Ferd	-4904
▁Holy	-4905
▁Iraq	-4906
▁acts	-4907
▁wors	-4908
attles	-4909
▁Trans	-4910
▁leave	-4911
▁legit	-4912
▁cultiv	-4913
▁simply	-4914
▁portion	-4915
▁radical	-4916
▁creative	-4917
▁hundreds	-4918
▁measured	-4919
▁officers	-4920
▁connected	-4921
▁theoretical	-4922
▁respectively	-4923
▁Ur	-4924
▁cul	-4925
.[59]	-4926
class	-4927
inand	-4928
ishop	-4929
rians	-4930
▁doub	-4931
▁tele	-4932
▁Inter	-4933
▁spent	-4934
▁circum	-4935
▁police	-4936
▁retreat	-4937
ographical	-4938
▁committed	-4939
▁confirmed	-4940
▁household	-4941
▁offensive	-4942
▁precipitation	-4943
11	-4944
aph	-4945
iny	-4946
unt	-4947
ourt	-4948
umin	-4949
▁184	-4950
.[57]	-4951
▁crew	-4952
encies	-4953
▁march	-4954
▁veloc	-4955
▁Freder	-4956
▁Social	-4957
▁cooper	-4958
▁letter	-4959
▁revolt	-4960
▁affairs	-4961
▁arrival	-4962
▁recently	-4963
▁Ferdinand	-4964
▁Parliament	-4965
▁approaches	-4966
▁immediately	-4967
▁interpretation	-4968
}}	-4969
olk	-4970
▁No	-4971
.[39	-4972
.[41	-4973
imal	-4974
▁Lib	-4975
▁Pan	-4976
▁tal	-4977
.[76]	-4978
.[96]	-4979
rence	-4980
state	-4981
▁Gulf	-4982
▁Mass	-4983
▁cand	-4984
▁dism	-4985
▁tact	-4986
amples	-4987
▁maxim	-4988
▁tides	-4989
▁plague	-4990
iography	-4991
▁organic	-4992
▁writers	-4993
▁authorities	-4994
,[7	-4995
ago	-4996
ato	-4997
appe	-4998
fect	-4999
iled	-5000
▁mit	-5001
.[71]	-5002
.[93]	-5003
.[99]	-5004
aders	-5005
apart	-5006
osite	-5007
▁Jose	-5008
called	-5009
struct	-5010
▁neuro	-5011
▁shift	-5012
▁devast	-5013
▁reserv	-5014
▁secure	-5015
▁wanted	-5016
▁temples	-5017
▁intensity	-5018
▁reference	-5019
▁components	-5020
▁experiment	-5021
21	-5022
itan	-5023
mass	-5024
▁Ash	-5025
▁san	-5026
▁tim	-5027
igins	-5028
▁1930	-5029
▁Hell	-5030
▁cold	-5031
▁tide	-5032
ibbean	-5033
▁Organ	-5034
▁exhib	-5035
▁rocks	-5036
▁meteor	-5037
▁declined	-5038
▁painting	-5039
▁repeated	-5040
▁Peninsula	-5041
▁apartheid	-5042
▁expression	-5043
▁experiments	-5044
▁civilisation	-5045
▁psychological	-5046
bl	-5047
acu	-5048
.[40	-5049
omic	-5050
then	-5051
▁149	-5052
.[40]	-5053
.[61]	-5054
.[90]	-5055
gence	-5056
▁Even	-5057
▁acid	-5058
▁clim	-5059
▁draw	-5060
▁Third	-5061
▁costs	-5062
▁stage	-5063
▁woman	-5064
▁Museum	-5065
▁Sultan	-5066
▁Though	-5067
▁antiqu	-5068
▁racial	-5069
▁Caribbean	-5070
▁abandoned	-5071
▁something	-5072
▁surviving	-5073
▁attributed	-5074
[4	-5075
00,	-5076
▁Ir	-5077
.[43	-5078
illa	-5079
rine	-5080
ster	-5081
▁dim	-5082
.[50]	-5083
anner	-5084
inity	-5085
▁hands	-5086
▁rules	-5087
▁bacter	-5088
▁casual	-5089
▁depends	-5090
▁horizon	-5091
▁document	-5092
▁reaching	-5093
▁extremely	-5094
▁performed	-5095
▁intelligence	-5096
▁civilizations	-5097
ini	-5098
ode	-5099
▁fif	-5100
.[69]	-5101
.[78]	-5102
antle	-5103
▁City	-5104
▁else	-5105
▁sons	-5106
▁heart	-5107
▁nomin	-5108
▁offer	-5109
nthesis	-5110
theless	-5111
▁Island	-5112
▁Modern	-5113
▁People	-5114
▁stones	-5115
▁unable	-5116
▁Harappan	-5117
▁diseases	-5118
▁monarchy	-5119
▁provides	-5120
ken	-5121
.[42	-5122
mark	-5123
▁Sub	-5124
.[55]	-5125
.[68]	-5126
.[70]	-5127
aught	-5128
pired	-5129
▁bond	-5130
wealth	-5131
▁orders	-5132
▁preced	-5133
▁segreg	-5134
▁Muslims	-5135
▁correct	-5136
▁notable	-5137
▁precise	-5138
▁projects	-5139
▁supplies	-5140
▁estimates	-5141
▁specifically	-5142
cus	-5143
key	-5144
ador	-5145
alle	-5146
▁160	-5147
▁Yuan	-5148
▁coin	-5149
▁vote	-5150
▁novel	-5151
▁prime	-5152
▁truth	-5153
isphere	-5154
uration	-5155
▁Norman	-5156
▁customs	-5157
▁replace	-5158
▁designed	-5159
▁emotional	-5160
▁worldwide	-5161
▁encouraged	-5162
▁occupation	-5163
▁characterized	-5164
nel	-5165
oken	-5166
▁Law	-5167
.[81]	-5168
.[87]	-5169
erted	-5170
hetic	-5171
olute	-5172
▁Mont	-5173
▁glob	-5174
modern	-5175
urally	-5176
vision	-5177
▁auton	-5178
▁chrom	-5179
▁story	-5180
▁discover	-5181
▁estimate	-5182
▁survived	-5183
▁training	-5184
▁classified	-5185
▁continents	-5186
▁astronomers	-5187
18	-5188
64	-5189
een	-5190
▁il	-5191
][22	-5192
rium	-5193
▁Wil	-5194
▁voy	-5195
▁fest	-5196
▁mort	-5197
▁shall	-5198
▁burial	-5199
▁massac	-5200
▁target	-5201
atically	-5202
▁managed	-5203
▁improved	-5204
▁literary	-5205
▁reaction	-5206
▁reducing	-5207
▁strongly	-5208
▁Frederick	-5209
▁completed	-5210
68	-5211
atl	-5212
ims	-5213
vin	-5214
▁cu	-5215
iman	-5216
rush	-5217
.[65]	-5218
.[82]	-5219
aling	-5220
erxes	-5221
▁Gold	-5222
▁Lord	-5223
▁Road	-5224
▁says	-5225
▁tect	-5226
▁Venus	-5227
▁reven	-5228
▁winds	-5229
▁stable	-5230
▁styles	-5231
▁origins	-5232
▁trading	-5233
▁Normandy	-5234
▁governor	-5235
▁predomin	-5236
▁programs	-5237
▁tornadoes	-5238
▁Government	-5239
▁background	-5240
▁discipline	-5241
▁intellectual	-5242
75	-5243
bu	-5244
ody	-5245
avia	-5246
crib	-5247
zone	-5248
▁Big	-5249
▁Nic	-5250
▁VII	-5251
▁mel	-5252
.[80]	-5253
.[86]	-5254
ropol	-5255
usalem	-5256
▁Psych	-5257
▁dated	-5258
▁candid	-5259
▁geomet	-5260
▁orbits	-5261
▁council	-5262
▁descend	-5263
▁parties	-5264
▁reality	-5265
▁relation	-5266
▁Jerusalem	-5267
▁elections	-5268
▁selection	-5269
▁hypothesis	-5270
▁accompanied	-5271
ux	-5272
-19	-5273
ses	-5274
▁155	-5275
▁Dan	-5276
.[60]	-5277
fully	-5278
ocent	-5279
organ	-5280
ounded	-5281
reland	-5282
▁clust	-5283
▁fixed	-5284
▁grand	-5285
▁mixed	-5286
▁Sicily	-5287
▁oxygen	-5288
▁propos	-5289
▁equival	-5290
▁rotation	-5291
▁fragments	-5292
▁succession	-5293
▁colonialism	-5294
▁Constitution	-5295
ao	-5296
za	-5297
.[44	-5298
▁300	-5299
▁Naz	-5300
.[83]	-5301
.[88]	-5302
erior	-5303
▁Iber	-5304
▁fuel	-5305
.[102]	-5306
▁yield	-5307
▁bright	-5308
▁exclus	-5309
▁tsunam	-5310
▁consolid	-5311
▁feminism	-5312
▁migration	-5313
▁regarding	-5314
▁foundation	-5315
▁officially	-5316
▁Confederate	-5317
79	-5318
zo	-5319
ois	-5320
uct	-5321
yth	-5322
▁Ye	-5323
][24	-5324
ahar	-5325
anda	-5326
rees	-5327
▁Ast	-5328
▁Neo	-5329
▁Sat	-5330
▁sky	-5331
.[63]	-5332
.[64]	-5333
eenth	-5334
omans	-5335
▁dict	-5336
▁opin	-5337
perors	-5338
▁Queen	-5339
▁polar	-5340
▁twent	-5341
▁circul	-5342
▁double	-5343
▁rising	-5344
▁Ireland	-5345
▁amounts	-5346
▁Minister	-5347
▁ordinary	-5348
▁depending	-5349
▁substantial	-5350
cen	-5351
ancy	-5352
anta	-5353
apor	-5354
▁153	-5355
▁Add	-5356
▁Cop	-5357
▁unf	-5358
.[79]	-5359
.[84]	-5360
▁fled	-5361
▁mere	-5362
.[107]	-5363
▁empir	-5364
▁image	-5365
▁normal	-5366
▁overth	-5367
▁valley	-5368
▁Crusade	-5369
▁Mongols	-5370
▁Virginia	-5371
▁millions	-5372
▁rainfall	-5373
▁thousand	-5374
▁consisted	-5375
▁administrative	-5376
14	-5377
bed	-5378
bul	-5379
gal	-5380
▁Mc	-5381
▁500	-5382
ategy	-5383
▁Iron	-5384
▁Mean	-5385
.[101]	-5386
▁Wales	-5387
▁flour	-5388
▁illeg	-5389
▁notes	-5390
▁tools	-5391
▁Joseph	-5392
▁Prince	-5393
▁cotton	-5394
▁income	-5395
▁assumed	-5396
▁becomes	-5397
▁release	-5398
▁symbols	-5399
▁strategy	-5400
▁perceived	-5401
▁questions	-5402
▁earthquakes	-5403
▁Commonwealth	-5404
▁introduction	-5405
ari	-5406
roc	-5407
ford	-5408
▁Mac	-5409
▁arc	-5410
▁von	-5411
break	-5412
rants	-5413
▁1920	-5414
▁arts	-5415
▁foot	-5416
mental	-5417
▁Argent	-5418
▁Martin	-5419
▁actual	-5420
▁images	-5421
▁select	-5422
▁specul	-5423
▁volume	-5424
▁regular	-5425
continent	-5426
▁academic	-5427
▁maritime	-5428
▁occasion	-5429
▁organism	-5430
▁demonstrated	-5431
▁constitutional	-5432
87	-5433
gu	-5434
"),	-5435
pic	-5436
usb	-5437
▁Of	-5438
][23	-5439
chev	-5440
life	-5441
▁Del	-5442
▁Rus	-5443
gency	-5444
▁Also	-5445
▁Song	-5446
ndered	-5447
▁accum	-5448
▁erupt	-5449
▁allows	-5450
▁unlike	-5451
▁Society	-5452
▁conclus	-5453
▁intense	-5454
▁consists	-5455
▁dependent	-5456
▁documents	-5457
▁involving	-5458
▁responded	-5459
▁supporters	-5460
▁educational	-5461
22	-5462
65	-5463
Ch	-5464
sw	-5465
enes	-5466
itic	-5467
ners	-5468
uous	-5469
with	-5470
▁Vol	-5471
▁adj	-5472
▁sav	-5473
.[85]	-5474
asure	-5475
▁Sule	-5476
▁stay	-5477
▁Court	-5478
▁Magna	-5479
▁abund	-5480
▁displ	-5481
▁clouds	-5482
▁stellar	-5483
▁mainland	-5484
▁missiles	-5485
▁nobility	-5486
▁settlers	-5487
▁withdraw	-5488
▁converted	-5489
▁magnitude	-5490
▁distinction	-5491
▁conservation	-5492
▁technologies	-5493
ware	-5494
▁Met	-5495
▁ban	-5496
▁sin	-5497
.[97]	-5498
▁felt	-5499
▁stra	-5500
.[100]	-5501
.[108]	-5502
▁favor	-5503
▁medic	-5504
▁views	-5505
▁favour	-5506
▁piracy	-5507
rushchev	-5508
▁battles	-5509
▁demands	-5510
▁empires	-5511
▁liberal	-5512
▁treated	-5513
▁diameter	-5514
▁indicate	-5515
▁interior	-5516
▁mountains	-5517
▁secondary	-5518
▁uncertain	-5519
▁combination	-5520
▁consequences	-5521
6)	-5522
–15	-5523
▁(4	-5524
head	-5525
tery	-5526
▁Pak	-5527
▁Sur	-5528
▁swe	-5529
.[91]	-5530
▁Acha	-5531
▁gene	-5532
▁huge	-5533
▁roles	-5534
▁trend	-5535
▁Polish	-5536
▁friend	-5537
▁physic	-5538
▁propag	-5539
▁ruling	-5540
▁particle	-5541
▁velocity	-5542
▁commander	-5543
▁conflicts	-5544
▁expanding	-5545
▁casualties	-5546
bar	-5547
▁Fe	-5548
▁Ty	-5549
▁nav	-5550
amber	-5551
ience	-5552
▁That	-5553
▁moon	-5554
▁overl	-5555
▁plans	-5556
▁10,000	-5557
▁copper	-5558
▁ensure	-5559
restrial	-5560
▁musical	-5561
▁reports	-5562
▁restric	-5563
▁thermal	-5564
▁Achaemen	-5565
▁Meanwhile	-5566
17	-5567
▁=	-5568
roph	-5569
▁aro	-5570
▁aud	-5571
rical	-5572
▁Gaul	-5573
▁Simil	-5574
▁Before	-5575
▁mantle	-5576
▁useful	-5577
▁Suleiman	-5578
▁Sumerian	-5579
▁absolute	-5580
▁minority	-5581
▁Khrushchev	-5582
▁rainforest	-5583
CO	-5584
,[6	-5585
uff	-5586
▁2.	-5587
▁Uk	-5588
viol	-5589
▁Mer	-5590
▁ran	-5591
.[95]	-5592
archy	-5593
▁White	-5594
▁atoms	-5595
▁dense	-5596
▁paint	-5597
▁pyram	-5598
▁desire	-5599
▁prohib	-5600
▁convers	-5601
▁Africans	-5602
▁emphasis	-5603
▁conquests	-5604
▁inscriptions	-5605
▁sustainability	-5606
iar	-5607
occ	-5608
rep	-5609
ippi	-5610
▁(15	-5611
▁Sel	-5612
andin	-5613
▁bank	-5614
▁husb	-5615
.[103]	-5616
.[109]	-5617
▁agree	-5618
▁takes	-5619
▁zones	-5620
western	-5621
▁partly	-5622
▁sacred	-5623
▁violent	-5624
▁visited	-5625
▁Ottomans	-5626
▁Pakistan	-5627
▁morality	-5628
▁restrict	-5629
▁generated	-5630
▁separated	-5631
▁Depression	-5632
▁sufficient	-5633
62	-5634
iph	-5635
ola	-5636
onn	-5637
▁2,	-5638
▁ru	-5639
grad	-5640
pler	-5641
▁pet	-5642
.[98]	-5643
▁Camb	-5644
▁Cold	-5645
▁sand	-5646
.[111]	-5647
thodox	-5648
▁Carol	-5649
▁multi	-5650
▁Hittite	-5651
▁quantum	-5652
▁Buddhism	-5653
▁molecular	-5654
▁standards	-5655
▁surrender	-5656
▁perception	-5657
cia	-5658
ita	-5659
bour	-5660
ican	-5661
crete	-5662
▁Navy	-5663
▁ensl	-5664
▁liqu	-5665
▁rail	-5666
▁tree	-5667
herent	-5668
▁Carta	-5669
▁bases	-5670
▁depos	-5671
▁leads	-5672
▁rival	-5673
▁Albert	-5674
▁Pompey	-5675
▁masses	-5676
▁search	-5677
▁Alexand	-5678
▁enemies	-5679
▁killing	-5680
▁Scotland	-5681
▁feminist	-5682
▁coalition	-5683
▁appearance	-5684
▁originated	-5685
▁performance	-5686
▁evolutionary	-5687
▁revolutionary	-5688
85	-5689
,[9	-5690
eds	-5691
osy	-5692
▁fast	-5693
▁tour	-5694
iosity	-5695
▁Crown	-5696
▁Marsh	-5697
▁adult	-5698
▁begun	-5699
▁diver	-5700
▁exerc	-5701
▁remov	-5702
▁Turkey	-5703
▁closed	-5704
▁metres	-5705
▁pieces	-5706
▁poetry	-5707
▁prepar	-5708
▁skills	-5709
▁sphere	-5710
▁spoken	-5711
▁telesc	-5712
▁drought	-5713
▁explore	-5714
▁learned	-5715
▁stories	-5716
▁Research	-5717
▁inspired	-5718
▁opposite	-5719
agu	-5720
rick	-5721
▁inj	-5722
.[89]	-5723
.[92]	-5724
inson	-5725
▁Four	-5726
▁Silk	-5727
▁USSR	-5728
▁enab	-5729
.[105]	-5730
.[113]	-5731
.[126]	-5732
▁Georg	-5733
▁Peace	-5734
▁ideal	-5735
▁recru	-5736
▁seems	-5737
▁table	-5738
itative	-5739
ructure	-5740
▁Hellen	-5741
▁Persia	-5742
▁Rights	-5743
▁ending	-5744
▁overse	-5745
▁Instead	-5746
▁cyclone	-5747
▁promoted	-5748
▁requires	-5749
▁slightly	-5750
▁Southeast	-5751
▁explained	-5752
▁otherwise	-5753
▁linguistic	-5754
▁philosopher	-5755
28	-5756
fe	-5757
gn	-5758
ki	-5759
▁Hem	-5760
▁Sim	-5761
orses	-5762
ubble	-5763
▁Just	-5764
cience	-5765
▁Grand	-5766
▁adopt	-5767
▁Declar	-5768
▁Secret	-5769
▁escape	-5770
▁landed	-5771
▁persec	-5772
▁sacrif	-5773
▁Scandin	-5774
▁passage	-5775
▁vessels	-5776
ellington	-5777
itionally	-5778
▁Anatolia	-5779
▁flooding	-5780
▁constitut	-5781
▁industries	-5782
▁definitions	-5783
67	-5784
gl	-5785
law	-5786
rap	-5787
cell	-5788
▁Nob	-5789
▁bre	-5790
▁mix	-5791
itage	-5792
▁Belg	-5793
.[104]	-5794
.[112]	-5795
.[122]	-5796
.[130]	-5797
forced	-5798
▁Green	-5799
▁Herod	-5800
▁ozone	-5801
agnetic	-5802
▁disord	-5803
▁punish	-5804
▁rituals	-5805
▁survive	-5806
▁peasants	-5807
▁strategic	-5808
▁Wellington	-5809
▁democratic	-5810
▁instruments	-5811
',	-5812
ali	-5813
aro	-5814
▁3.	-5815
▁31	-5816
▁Ts	-5817
▁ha	-5818
."[3	-5819
itch	-5820
▁Due	-5821
▁Ein	-5822
▁Not	-5823
▁etc	-5824
heres	-5825
raine	-5826
▁judg	-5827
▁rose	-5828
govern	-5829
overty	-5830
▁Within	-5831
▁condem	-5832
▁mining	-5833
▁patron	-5834
▁rebels	-5835
▁centers	-5836
▁disturb	-5837
▁station	-5838
▁typical	-5839
▁communist	-5840
▁reduction	-5841
–4	-5842
alu	-5843
iop	-5844
▁Hom	-5845
▁Int	-5846
▁pan	-5847
.[94]	-5848
▁elev	-5849
▁race	-5850
▁seek	-5851
▁sole	-5852
.[110]	-5853
.[114]	-5854
.[125]	-5855
▁Euras	-5856
▁weeks	-5857
▁Scient	-5858
▁cosmic	-5859
▁relief	-5860
cription	-5861
▁fossils	-5862
▁inherit	-5863
▁letters	-5864
▁outbreak	-5865
▁proclaimed	-5866
raf	-5867
▁kn	-5868
zing	-5869
▁App	-5870
▁told	-5871
.[106]	-5872
▁inner	-5873
vention	-5874
▁easily	-5875
▁nobles	-5876
▁owners	-5877
▁stages	-5878
▁Turkish	-5879
▁distant	-5880
▁calendar	-5881
▁abolished	-5882
▁invasions	-5883
▁protected	-5884
▁Vietnamese	-5885
▁threatened	-5886
▁psychologists	-5887
27	-5888
[6	-5889
ee	-5890
auc	-5891
ogy	-5892
uma	-5893
▁29	-5894
▁33	-5895
comm	-5896
▁120	-5897
▁Dyn	-5898
▁Non	-5899
▁Pic	-5900
▁fal	-5901
erent	-5902
ushed	-5903
▁Cape	-5904
▁Like	-5905
▁Plut	-5906
▁Stud	-5907
▁debt	-5908
▁fair	-5909
▁flat	-5910
▁vari	-5911
olshev	-5912
▁extra	-5913
▁sound	-5914
▁stret	-5915
othermal	-5916
▁advances	-5917
▁computer	-5918
▁Antarctic	-5919
▁renewable	-5920
▁categories	-5921
▁explanation	-5922
▁generations	-5923
▁imagination	-5924
▁Carthaginian	-5925
▁developments	-5926
5%	-5927
án	-5928
adi	-5929
pan	-5930
hist	-5931
▁Bur	-5932
▁eld	-5933
▁mov	-5934
henge	-5935
▁Balk	-5936
▁Serv	-5937
▁poly	-5938
▁song	-5939
.[116]	-5940
sembly	-5941
▁pries	-5942
▁purch	-5943
▁Temple	-5944
▁allied	-5945
▁medium	-5946
▁seized	-5947
ployment	-5948
▁artists	-5949
▁capable	-5950
▁oceanic	-5951
▁appropri	-5952
▁fragment	-5953
▁purposes	-5954
▁studying	-5955
▁intention	-5956
▁locations	-5957
▁Declaration	-5958
▁territorial	-5959
▁subsequently	-5960
13	-5961
63	-5962
aut	-5963
van	-5964
][27	-5965
opes	-5966
▁Mel	-5967
▁awa	-5968
▁bul	-5969
▁enj	-5970
▁Marx	-5971
▁Nile	-5972
▁laid	-5973
▁semi	-5974
▁team	-5975
▁expand	-5976
▁houses	-5977
▁charged	-5978
▁medical	-5979
▁seasons	-5980
▁secular	-5981
▁nitrogen	-5982
▁revealed	-5983
▁solution	-5984
▁exception	-5985
▁boundaries	-5986
▁equivalent	-5987
▁possibility	-5988
,[8	-5989
aur	-5990
inth	-5991
▁Cap	-5992
▁Meh	-5993
▁ske	-5994
▁Camp	-5995
▁Gall	-5996
▁Zeal	-5997
▁mist	-5998
.[115]	-5999
▁fault	-6000
▁oblig	-6001
▁signs	-6002
iciency	-6003
issippi	-6004
▁Archae	-6005
▁Around	-6006
▁Nether	-6007
▁narrow	-6008
▁scales	-6009
▁Zealand	-6010
▁balance	-6011
▁collaps	-6012
▁forcing	-6013
conscious	-6014
▁networks	-6015
cow	-6016
▁ur	-6017
abil	-6018
cers	-6019
uses	-6020
well	-6021
▁boy	-6022
▁Mach	-6023
illery	-6024
▁Water	-6025
▁drawn	-6026
▁horse	-6027
▁plays	-6028
▁strat	-6029
▁combat	-6030
▁plates	-6031
▁radius	-6032
▁slowly	-6033
▁Philipp	-6034
▁artific	-6035
▁markets	-6036
▁paralle	-6037
▁prosper	-6038
▁Assembly	-6039
▁boundary	-6040
▁planning	-6041
▁spectrum	-6042
▁superior	-6043
▁spiritual	-6044
▁Stonehenge	-6045
▁consisting	-6046
▁continuous	-6047
▁vegetation	-6048
▁distinguished	-6049
hic	-6050
hum	-6051
oir	-6052
▁60	-6053
▁Zh	-6054
apes	-6055
atal	-6056
ione	-6057
oric	-6058
sect	-6059
▁Den	-6060
▁enh	-6061
▁job	-6062
antly	-6063
▁fine	-6064
▁nine	-6065
▁safe	-6066
Europe	-6067
▁advis	-6068
▁fresh	-6069
▁initi	-6070
▁schem	-6071
ference	-6072
▁Palest	-6073
▁acting	-6074
▁buried	-6075
▁Company	-6076
▁Hungary	-6077
▁consuls	-6078
▁deserts	-6079
▁infrast	-6080
▁restored	-6081
▁defensive	-6082
▁producing	-6083
▁controvers	-6084
▁professional	-6085
84	-6086
200	-6087
.[45	-6088
▁Dam	-6089
▁Ice	-6090
▁Off	-6091
▁Tut	-6092
▁abst	-6093
▁vass	-6094
.[136]	-6095
Americ	-6096
▁Chile	-6097
▁Sweden	-6098
▁exists	-6099
▁prompt	-6100
ulations	-6101
▁100,000	-6102
▁assault	-6103
▁borders	-6104
▁disappe	-6105
▁exoplan	-6106
▁nomadic	-6107
▁Florence	-6108
▁brothers	-6109
▁standing	-6110
▁mythology	-6111
▁Hellenistic	-6112
2)	-6113
uz	-6114
ahu	-6115
▁Ib	-6116
▁181	-6117
▁Haw	-6118
▁big	-6119
▁eye	-6120
▁fer	-6121
▁lib	-6122
▁tea	-6123
usted	-6124
▁Musa	-6125
▁snow	-6126
.[137]	-6127
▁Moscow	-6128
▁Native	-6129
▁excess	-6130
▁Bolshev	-6131
▁poverty	-6132
▁scrolls	-6133
▁Persians	-6134
▁decisive	-6135
▁sunlight	-6136
ologically	-6137
rimination	-6138
▁Classical	-6139
▁Egyptians	-6140
▁consensus	-6141
▁currently	-6142
▁installed	-6143
▁proportion	-6144
▁engineering	-6145
▁exploration	-6146
awa	-6147
met	-6148
▁Gh	-6149
▁Ho	-6150
amil	-6151
orus	-6152
port	-6153
▁154	-6154
▁Akk	-6155
ipped	-6156
osure	-6157
▁firm	-6158
.[117]	-6159
.[121]	-6160
.[128]	-6161
.[139]	-6162
▁enjoy	-6163
▁grass	-6164
▁ports	-6165
▁supre	-6166
▁usage	-6167
▁Arabic	-6168
▁Global	-6169
▁decade	-6170
▁horses	-6171
▁notion	-6172
▁sailed	-6173
▁sector	-6174
▁visual	-6175
▁accused	-6176
▁chromos	-6177
▁changing	-6178
▁equality	-6179
▁explored	-6180
▁formally	-6181
▁democracy	-6182
▁predicted	-6183
▁extinction	-6184
▁supporting	-6185
▁consumption	-6186
▁terrestrial	-6187
ga	-6188
][25	-6189
acts	-6190
otus	-6191
▁Mag	-6192
erate	-6193
iling	-6194
osity	-6195
uties	-6196
▁belt	-6197
▁road	-6198
riving	-6199
ultane	-6200
▁Korea	-6201
▁disag	-6202
▁myths	-6203
ossible	-6204
▁coming	-6205
▁elimin	-6206
▁spiral	-6207
▁channel	-6208
▁degrees	-6209
▁imposed	-6210
▁promote	-6211
▁wealthy	-6212
▁Canadian	-6213
▁artistic	-6214
▁identify	-6215
▁dominance	-6216
▁frequency	-6217
▁principal	-6218
▁strengthen	-6219
▁Mississippi	-6220
▁implemented	-6221
▁incorporated	-6222
69	-6223
DP	-6224
rog	-6225
▁Sa	-6226
▁Up	-6227
.[47	-6228
iana	-6229
▁Jin	-6230
▁Men	-6231
utive	-6232
ville	-6233
▁Mich	-6234
▁unsu	-6235
.[119]	-6236
.[120]	-6237
itical	-6238
pected	-6239
reness	-6240
▁Young	-6241
▁steam	-6242
ruption	-6243
▁blacks	-6244
▁define	-6245
▁liquid	-6246
▁manner	-6247
▁marine	-6248
▁master	-6249
▁palace	-6250
▁exposed	-6251
▁preserv	-6252
▁thereby	-6253
▁Economic	-6254
▁writings	-6255
▁chemistry	-6256
▁continues	-6257
▁Commission	-6258
▁contribute	-6259
▁parliament	-6260
▁imperialism	-6261
▁recognition	-6262
▁infrastructure	-6263
▁\	-6264
▁(5	-6265
▁80	-6266
arsh	-6267
odes	-6268
osse	-6269
yrus	-6270
▁Don	-6271
▁Sax	-6272
▁cry	-6273
▁pra	-6274
▁rob	-6275
ament	-6276
ordin	-6277
▁Near	-6278
▁Temü	-6279
▁navy	-6280
.[124]	-6281
▁Three	-6282
▁Women	-6283
▁equip	-6284
▁moist	-6285
attered	-6286
isations	-6287
▁Climate	-6288
▁Conserv	-6289
▁convict	-6290
▁currents	-6291
▁detailed	-6292
▁electrom	-6293
▁emperors	-6294
▁indirect	-6295
▁retained	-6296
▁Communist	-6297
▁component	-6298
▁economies	-6299
▁framework	-6300
▁mechanics	-6301
▁reactions	-6302
▁involvement	-6303
▁opportunity	-6304
▁subcontinent	-6305
;[1	-6306
▁Ba	-6307
▁Gi	-6308
rant	-6309
rier	-6310
anism	-6311
.[123]	-6312
.[131]	-6313
▁Theod	-6314
▁Associ	-6315
▁branch	-6316
▁Federal	-6317
▁ceremon	-6318
▁ecology	-6319
▁justice	-6320
▁parents	-6321
▁seeking	-6322
▁version	-6323
▁acquired	-6324
▁carrying	-6325
▁Neolithic	-6326
▁discussed	-6327
▁invention	-6328
▁reflected	-6329
▁stability	-6330
▁transferred	-6331
▁independently	-6332
▁historiography	-6333
▁representation	-6334
▁VI	-6335
▁164	-6336
▁bio	-6337
▁jur	-6338
oking	-6339
ysics	-6340
▁ally	-6341
▁fish	-6342
.[138]	-6343
aparte	-6344
ession	-6345
rating	-6346
▁Never	-6347
▁conve	-6348
▁hydro	-6349
▁manif	-6350
▁trium	-6351
▁wider	-6352
▁wrong	-6353
▁Ethiop	-6354
▁Others	-6355
▁clergy	-6356
▁prices	-6357
▁varies	-6358
▁Assyria	-6359
▁tactics	-6360
▁younger	-6361
▁merchant	-6362
▁preserved	-6363
▁variation	-6364
▁connection	-6365
▁Netherlands	-6366
▁electricity	-6367
▁restoration	-6368
▁colonization	-6369
▁concentration	-6370
[7	-6371
bor	-6372
ney	-6373
uli	-6374
][26	-6375
atre	-6376
ctic	-6377
long	-6378
ogun	-6379
quar	-6380
road	-6381
▁163	-6382
▁Sar	-6383
▁Vik	-6384
▁rig	-6385
▁Only	-6386
▁aest	-6387
▁bott	-6388
▁disk	-6389
▁purs	-6390
▁unus	-6391
.[127]	-6392
.[141]	-6393
▁Frank	-6394
▁deleg	-6395
▁items	-6396
▁persu	-6397
▁acknow	-6398
▁crucial	-6399
▁falling	-6400
▁marched	-6401
▁opinion	-6402
▁uniform	-6403
▁alongside	-6404
▁antiquity	-6405
▁artillery	-6406
▁collected	-6407
▁partially	-6408
▁Reformation	-6409
▁segregation	-6410
▁sustainable	-6411
],	-6412
alk	-6413
ien	-6414
wan	-6415
▁Div	-6416
▁Jes	-6417
▁mas	-6418
▁feet	-6419
▁here	-6420
▁teac	-6421
.[118]	-6422
igious	-6423
ysical	-6424
▁Trade	-6425
▁daily	-6426
▁depth	-6427
▁false	-6428
▁guard	-6429
▁pursu	-6430
atively	-6431
▁Commit	-6432
▁Forest	-6433
▁Johann	-6434
▁convin	-6435
▁legisl	-6436
▁prefer	-6437
▁stored	-6438
▁benefit	-6439
▁protest	-6440
▁weakened	-6441
▁emergence	-6442
▁Achaemenid	-6443
▁depression	-6444
▁influences	-6445
▁restricted	-6446
▁situations	-6447
▁suggesting	-6448
▁Furthermore	-6449
▁/	-6450
▁i	-6451
50,	-6452
ais	-6453
pet	-6454
ura	-6455
zen	-6456
hens	-6457
oked	-6458
osph	-6459
▁Air	-6460
▁Ten	-6461
▁Tri	-6462
▁vul	-6463
▁Jean	-6464
▁blow	-6465
▁intr	-6466
▁rely	-6467
.[140]	-6468
encing	-6469
▁alter	-6470
▁fires	-6471
▁genet	-6472
▁chance	-6473
▁elabor	-6474
standing	-6475
▁disrupt	-6476
▁observer	-6477
▁volcanoes	-6478
▁wildfires	-6479
▁impossible	-6480
83	-6481
sk	-6482
ael	-6483
rey	-6484
una	-6485
asty	-6486
omed	-6487
▁Est	-6488
▁Ros	-6489
▁aqu	-6490
▁dig	-6491
after	-6492
ients	-6493
mathb	-6494
▁2010	-6495
▁aims	-6496
▁ball	-6497
.[129]	-6498
.[134]	-6499
warded	-6500
▁autom	-6501
▁giant	-6502
▁minim	-6503
▁owned	-6504
▁strict	-6505
▁strike	-6506
▁Ukraine	-6507
▁burning	-6508
▁extinct	-6509
▁neither	-6510
▁unified	-6511
▁bacteria	-6512
▁protests	-6513
▁Argentina	-6514
▁companies	-6515
▁criticism	-6516
▁divisions	-6517
▁empirical	-6518
▁geological	-6519
▁technological	-6520
▁traditionally	-6521
▁discrimination	-6522
1)	-6523
AC	-6524
bi	-6525
cel	-6526
kes	-6527
nty	-6528
▁fu	-6529
ilib	-6530
ucas	-6531
▁(17	-6532
ivals	-6533
oston	-6534
▁Serb	-6535
▁answ	-6536
▁murd	-6537
▁news	-6538
▁shel	-6539
▁valu	-6540
.[142]	-6541
.[162]	-6542
cribed	-6543
▁About	-6544
▁Guard	-6545
▁Scott	-6546
▁coron	-6547
▁noble	-6548
▁patri	-6549
imental	-6550
▁husband	-6551
▁machine	-6552
▁ongoing	-6553
▁pottery	-6554
▁scholar	-6555
▁medicine	-6556
▁overseas	-6557
▁Bonaparte	-6558
▁civilians	-6559
▁equipment	-6560
▁inherited	-6561
▁Conference	-6562
▁distinguish	-6563
▁maintaining	-6564
▁measurements	-6565
▁characteristic	-6566
yb	-6567
ibl	-6568
ump	-6569
Assy	-6570
berg	-6571
vest	-6572
▁rom	-6573
etary	-6574
orage	-6575
▁coup	-6576
.[153]	-6577
isting	-6578
ublics	-6579
▁Major	-6580
▁artif	-6581
▁crime	-6582
▁stead	-6583
▁union	-6584
athered	-6585
atorial	-6586
ciation	-6587
itional	-6588
uscript	-6589
▁Period	-6590
▁phases	-6591
▁refuge	-6592
▁relied	-6593
▁shogun	-6594
reements	-6595
▁habitat	-6596
▁shortly	-6597
▁Einstein	-6598
▁communic	-6599
▁governed	-6600
▁imported	-6601
▁distances	-6602
▁describing	-6603
▁structural	-6604
▁conservative	-6605
▁establishing	-6606
26	-6607
4)	-6608
uci	-6609
▁Us	-6610
also	-6611
what	-6612
▁Bul	-6613
▁Sir	-6614
▁Bern	-6615
▁Oper	-6616
▁Stra	-6617
▁bill	-6618
▁cann	-6619
▁film	-6620
▁hair	-6621
▁hosp	-6622
▁trop	-6623
.[132]	-6624
▁Local	-6625
▁aimed	-6626
▁delay	-6627
▁glass	-6628
▁nebul	-6629
▁seism	-6630
▁toler	-6631
itarian	-6632
unction	-6633
▁metall	-6634
▁stream	-6635
▁termed	-6636
▁varied	-6637
ilibrium	-6638
▁alleged	-6639
▁attract	-6640
▁centres	-6641
▁removal	-6642
▁tribute	-6643
▁demanded	-6644
▁survival	-6645
osynthesis	-6646
▁Herodotus	-6647
▁histories	-6648
▁narrative	-6649
▁theorists	-6650
▁comparison	-6651
▁surrounded	-6652
▁interpreted	-6653
▁surrendered	-6654
▁cosmological	-6655
▁architectural	-6656
VN	-6657
ns	-6658
iro	-6659
lor	-6660
rat	-6661
rem	-6662
][29	-6663
ghan	-6664
iger	-6665
olve	-6666
vent	-6667
▁Sup	-6668
▁Tim	-6669
▁gla	-6670
▁ion	-6671
5,000	-6672
▁cuis	-6673
▁thir	-6674
▁tons	-6675
.[155]	-6676
▁besie	-6677
▁decor	-6678
▁physi	-6679
▁vehic	-6680
▁wavel	-6681
▁Darius	-6682
▁Golden	-6683
▁Levant	-6684
▁Sparta	-6685
▁Tutank	-6686
▁resemb	-6687
▁weight	-6688
▁defence	-6689
▁minutes	-6690
▁circumst	-6691
▁founding	-6692
▁generals	-6693
▁prepared	-6694
▁Historian	-6695
▁mechanism	-6696
▁simultane	-6697
▁treatment	-6698
▁Babylonian	-6699
▁criticized	-6700
▁spacecraft	-6701
▁Nevertheless	-6702
▁environments	-6703
▁significance	-6704
▁controversial	-6705
▁manufacturing	-6706
19	-6707
uv	-6708
ikh	-6709
jin	-6710
cycl	-6711
rosc	-6712
wave	-6713
▁Ben	-6714
▁hem	-6715
▁hur	-6716
▁map	-6717
▁Merc	-6718
▁ties	-6719
.[157]	-6720
ilding	-6721
mathbf	-6722
urches	-6723
▁antic	-6724
▁banks	-6725
▁monit	-6726
▁Julius	-6727
▁Vikings	-6728
▁receive	-6729
ependence	-6730
▁emission	-6731
▁isolated	-6732
▁Committee	-6733
▁dedicated	-6734
▁electrons	-6735
▁nutrients	-6736
▁Alexandria	-6737
▁Democratic	-6738
▁Phoenician	-6739
▁expeditions	-6740
▁publication	-6741
▁historically	-6742
▁representing	-6743
45	-6744
88	-6745
ji	-6746
la	-6747
no	-6748
alf	-6749
set	-6750
▁Es	-6751
▁Ha	-6752
▁ey	-6753
▁rh	-6754
.[46	-6755
][30	-6756
onym	-6757
▁1.5	-6758
▁Abb	-6759
amics	-6760
hamun	-6761
idden	-6762
idity	-6763
ignty	-6764
illes	-6765
range	-6766
▁Book	-6767
▁Meso	-6768
▁Prin	-6769
▁bure	-6770
▁your	-6771
.[133]	-6772
.[135]	-6773
.[144]	-6774
.[156]	-6775
▁Therm	-6776
▁colle	-6777
▁Saturn	-6778
▁saying	-6779
▁biology	-6780
▁deities	-6781
▁destroy	-6782
▁maximum	-6783
▁section	-6784
▁arrested	-6785
▁decrease	-6786
▁proteins	-6787
▁resource	-6788
▁arguments	-6789
▁commanded	-6790
▁initiated	-6791
▁landscape	-6792
▁recovered	-6793
')	-6794
ón	-6795
ige	-6796
mat	-6797
aine	-6798
unte	-6799
▁Day	-6800
▁Def	-6801
▁Hit	-6802
ishes	-6803
ivest	-6804
sburg	-6805
▁Pier	-6806
▁hect	-6807
▁indu	-6808
▁warm	-6809
ancing	-6810
▁flows	-6811
erences	-6812
inental	-6813
▁Boston	-6814
▁feudal	-6815
European	-6816
ivestock	-6817
▁Indones	-6818
▁perfect	-6819
▁priests	-6820
▁witness	-6821
▁invented	-6822
▁stronger	-6823
▁challenge	-6824
▁curiosity	-6825
▁challenged	-6826
▁diplomatic	-6827
▁manuscript	-6828
▁Tutankhamun	-6829
▁opportunities	-6830
ctu	-6831
oca	-6832
inea	-6833
▁Bol	-6834
▁Pel	-6835
▁bud	-6836
arked	-6837
orrow	-6838
stone	-6839
.[154]	-6840
▁Armen	-6841
▁Prime	-6842
▁camps	-6843
▁homel	-6844
iveness	-6845
▁layers	-6846
▁savann	-6847
Assyrian	-6848
▁setting	-6849
▁tsunami	-6850
▁Examples	-6851
▁modified	-6852
▁obtained	-6853
▁parallel	-6854
▁supposed	-6855
▁Mountains	-6856
▁activists	-6857
▁followers	-6858
▁monuments	-6859
▁reinforce	-6860
▁artificial	-6861
▁challenges	-6862
▁employment	-6863
▁intervention	-6864
8%	-6865
bec	-6866
ira	-6867
lat	-6868
▁My	-6869
▁ic	-6870
,[10	-6871
,[12	-6872
aked	-6873
dden	-6874
ture	-6875
▁(20	-6876
▁Nub	-6877
▁Tor	-6878
▁phr	-6879
icide	-6880
iforn	-6881
using	-6882
▁radi	-6883
.[160]	-6884
orious	-6885
▁1,000	-6886
▁Death	-6887
▁Turks	-6888
▁board	-6889
▁gives	-6890
▁inequ	-6891
▁kinds	-6892
▁satis	-6893
▁shell	-6894
lighten	-6895
ulating	-6896
▁Territ	-6897
▁courts	-6898
▁sultan	-6899
piration	-6900
▁Johnson	-6901
▁absence	-6902
▁defense	-6903
▁politic	-6904
▁privile	-6905
▁trained	-6906
▁varying	-6907
▁Agricult	-6908
▁argument	-6909
▁contract	-6910
▁sediment	-6911
▁symbolic	-6912
▁elsewhere	-6913
▁excavated	-6914
▁mechanisms	-6915
▁substances	-6916
▁corresponding	-6917
.)	-6918
66	-6919
{\	-6920
ils	-6921
zed	-6922
▁4.	-6923
ompl	-6924
rene	-6925
▁10%	-6926
▁Ann	-6927
▁Mah	-6928
▁Tra	-6929
▁Ver	-6930
▁alg	-6931
▁unp	-6932
elest	-6933
prise	-6934
▁drew	-6935
▁nort	-6936
▁send	-6937
.[143]	-6938
.[147]	-6939
illing	-6940
ipping	-6941
reedom	-6942
▁Bible	-6943
▁Fried	-6944
▁color	-6945
▁mobil	-6946
▁roads	-6947
▁thick	-6948
▁unity	-6949
▁worth	-6950
ifornia	-6951
resents	-6952
▁faster	-6953
▁storms	-6954
▁sudden	-6955
▁writes	-6956
▁Ptolema	-6957
▁Various	-6958
▁calling	-6959
▁descent	-6960
▁details	-6961
▁follows	-6962
▁unclear	-6963
▁directed	-6964
▁generate	-6965
▁normally	-6966
▁awareness	-6967
▁decisions	-6968
▁objective	-6969
lightenment	-6970
▁Convention	-6971
▁separation	-6972
▁circulation	-6973
▁competition	-6974
▁equilibrium	-6975
▁circumstances	-6976
zh	-6977
bes	-6978
kin	-6979
▁(9	-6980
▁70	-6981
▁Il	-6982
from	-6983
oras	-6984
▁Edu	-6985
▁Max	-6986
▁Ray	-6987
▁hit	-6988
right	-6989
vious	-6990
▁amph	-6991
▁blue	-6992
▁crow	-6993
▁meth	-6994
.[161]	-6995
.[178]	-6996
making	-6997
▁Group	-6998
▁enorm	-6999
▁unpre	-7000
eration	-7001
▁Hitler	-7002
▁banned	-7003
▁crimes	-7004
▁fourth	-7005
▁Indians	-7006
▁conquer	-7007
▁focuses	-7008
▁forward	-7009
▁restore	-7010
▁stating	-7011
ederation	-7012
▁Buddhist	-7013
▁everyday	-7014
▁publicly	-7015
▁Similarly	-7016
▁mentioned	-7017
▁paintings	-7018
▁California	-7019
▁containing	-7020
▁geothermal	-7021
▁Constantine	-7022
▁sovereignty	-7023
▁transformed	-7024
600	-7025
oud	-7026
tra	-7027
,[11	-7028
cher	-7029
olas	-7030
raph	-7031
▁90%	-7032
▁Cas	-7033
▁Sum	-7034
▁gun	-7035
▁haz	-7036
ancip	-7037
▁Tang	-7038
▁code	-7039
▁hero	-7040
▁raid	-7041
▁unem	-7042
.[145]	-7043
.[151]	-7044
stream	-7045
▁2,000	-7046
▁Large	-7047
▁drive	-7048
▁floor	-7049
▁grain	-7050
▁queen	-7051
▁quite	-7052
▁raids	-7053
▁Arctic	-7054
▁intens	-7055
▁legacy	-7056
▁unrest	-7057
▁voyage	-7058
▁vulner	-7059
▁Develop	-7060
▁princes	-7061
▁ranging	-7062
▁storage	-7063
▁Mesoamer	-7064
▁feedback	-7065
▁relevant	-7066
▁operation	-7067
▁technique	-7068
▁unsuccess	-7069
▁Phoenicians	-7070
▁application	-7071
▁politically	-7072
29	-7073
uck	-7074
▁37	-7075
▁Er	-7076
▁Ku	-7077
,[13	-7078
cans	-7079
lets	-7080
rans	-7081
ylae	-7082
▁Jac	-7083
▁Nov	-7084
▁sle	-7085
▁tot	-7086
point	-7087
▁duty	-7088
▁pict	-7089
▁pure	-7090
▁sack	-7091
▁salt	-7092
ployed	-7093
▁basin	-7094
▁joint	-7095
▁pione	-7096
▁realm	-7097
istical	-7098
utation	-7099
▁Depart	-7100
▁Picchu	-7101
▁closer	-7102
▁crimin	-7103
▁custom	-7104
▁limits	-7105
▁murder	-7106
▁monopol	-7107
▁churches	-7108
▁constitu	-7109
▁promised	-7110
▁recovery	-7111
▁Ptolemaic	-7112
▁Therefore	-7113
▁convinced	-7114
▁dissolved	-7115
▁interview	-7116
▁practiced	-7117
▁satellite	-7118
▁represents	-7119
▁integration	-7120
▁necessarily	-7121
47	-7122
86	-7123
akh	-7124
–20	-7125
▁Bi	-7126
alin	-7127
elve	-7128
emed	-7129
mond	-7130
pass	-7131
▁157	-7132
▁Leg	-7133
▁don	-7134
▁pil	-7135
orian	-7136
orter	-7137
▁flee	-7138
▁folk	-7139
▁onto	-7140
▁pest	-7141
.[146]	-7142
aharan	-7143
apping	-7144
▁Ashur	-7145
▁evalu	-7146
▁lumin	-7147
▁plane	-7148
▁round	-7149
▁Unlike	-7150
▁cycles	-7151
▁exceed	-7152
▁topics	-7153
gression	-7154
▁accompl	-7155
▁article	-7156
▁damaged	-7157
▁dismiss	-7158
▁driving	-7159
▁dropped	-7160
▁journal	-7161
▁nothing	-7162
▁circular	-7163
▁disputed	-7164
▁missions	-7165
▁Assyrians	-7166
▁cosmology	-7167
▁indicates	-7168
▁sculpture	-7169
▁statement	-7170
▁Hemisphere	-7171
▁concerning	-7172
▁battlefield	-7173
▁discoveries	-7174
▁inheritance	-7175
▁Additionally	-7176
16	-7177
[9	-7178
eg	-7179
sl	-7180
osl	-7181
▁Od	-7182
▁Lab	-7183
▁Rad	-7184
arant	-7185
estab	-7186
idges	-7187
power	-7188
▁Lake	-7189
▁Once	-7190
.[149]	-7191
.[158]	-7192
anting	-7193
▁2019,	-7194
▁holds	-7195
▁magnet	-7196
▁priest	-7197
▁pushed	-7198
▁assimil	-7199
▁bureauc	-7200
▁matters	-7201
▁threats	-7202
▁thunder	-7203
▁volunte	-7204
abilities	-7205
▁attribut	-7206
▁exposure	-7207
▁withdrew	-7208
▁Secretary	-7209
▁expensive	-7210
▁festivals	-7211
▁inflation	-7212
▁Association	-7213
▁Philippines	-7214
▁nationalist	-7215
▁concentrated	-7216
89	-7217
ES	-7218
▁,	-7219
add	-7220
lym	-7221
olf	-7222
ball	-7223
rize	-7224
that	-7225
umes	-7226
▁250	-7227
▁Obs	-7228
▁Six	-7229
▁anx	-7230
▁lie	-7231
asing	-7232
atial	-7233
inite	-7234
viron	-7235
▁dial	-7236
▁fart	-7237
▁link	-7238
▁serf	-7239
▁shot	-7240
▁Schol	-7241
▁Those	-7242
▁clean	-7243
▁doing	-7244
▁norms	-7245
▁broken	-7246
▁census	-7247
▁commem	-7248
▁metaph	-7249
▁pirate	-7250
▁shield	-7251
▁sister	-7252
iciently	-7253
▁Michael	-7254
▁categor	-7255
▁ethical	-7256
▁painted	-7257
▁revenue	-7258
▁Orthodox	-7259
▁absorbed	-7260
▁abstract	-7261
▁autonomy	-7262
▁clusters	-7263
▁detected	-7264
▁frequent	-7265
▁hectares	-7266
▁momentum	-7267
▁suppress	-7268
▁villages	-7269
▁Ecosystem	-7270
▁behaviors	-7271
▁dangerous	-7272
▁peninsula	-7273
▁successors	-7274
▁cooperation	-7275
▁descendants	-7276
▁commissioned	-7277
2%	-7278
39	-7279
81	-7280
jo	-7281
iks	-7282
▁Ly	-7283
▁176	-7284
▁Sem	-7285
▁bad	-7286
▁1800	-7287
▁bloc	-7288
▁pron	-7289
.[182]	-7290
engths	-7291
osseum	-7292
▁Cuban	-7293
▁chose	-7294
▁compr	-7295
▁param	-7296
▁prest	-7297
▁topic	-7298
ilitary	-7299
▁Armada	-7300
▁accord	-7301
▁atomic	-7302
▁circle	-7303
▁covers	-7304
▁delive	-7305
▁differ	-7306
▁lacked	-7307
▁meters	-7308
▁taught	-7309
American	-7310
▁Pompeii	-7311
▁adapted	-7312
▁dispute	-7313
▁holding	-7314
▁annually	-7315
▁dynamics	-7316
▁theology	-7317
▁artifacts	-7318
▁collapsed	-7319
▁decreased	-7320
▁livestock	-7321
▁Republican	-7322
▁collective	-7323
▁designated	-7324
▁distributed	-7325
▁experimental	-7326
▁participation	-7327
▁electromagnetic	-7328
33	-7329
8)	-7330
ez	-7331
ti	-7332
▁0	-7333
[12	-7334
osa	-7335
▁Po	-7336
aria	-7337
eded	-7338
rink	-7339
▁400	-7340
▁50%	-7341
▁Mod	-7342
▁Som	-7343
▁Wal	-7344
▁dia	-7345
ecess	-7346
erals	-7347
place	-7348
ptune	-7349
rared	-7350
▁Long	-7351
▁Park	-7352
▁Step	-7353
▁sect	-7354
▁tens	-7355
▁apply	-7356
▁imper	-7357
▁marry	-7358
▁papal	-7359
▁posit	-7360
▁merely	-7361
▁prince	-7362
▁united	-7363
▁annexed	-7364
▁broader	-7365
▁dynamic	-7366
▁lasting	-7367
▁orbital	-7368
▁Akkadian	-7369
▁accurate	-7370
▁bringing	-7371
▁colonists	-7372
▁delivered	-7373
▁economics	-7374
▁Macedonian	-7375
▁consistent	-7376
▁Confederacy	-7377
▁appropriate	-7378
▁archaeologists	-7379
▁responsibility	-7380
oi	-7381
bro	-7382
–17	-7383
▁UK	-7384
amin	-7385
eres	-7386
leys	-7387
ocht	-7388
race	-7389
▁Num	-7390
icism	-7391
igade	-7392
rency	-7393
▁Amaz	-7394
▁Burg	-7395
▁Indo	-7396
▁Nazi	-7397
▁Post	-7398
▁Trad	-7399
▁spin	-7400
▁tort	-7401
.[150]	-7402
.[152]	-7403
.[176]	-7404
ounder	-7405
▁Irish	-7406
▁Punic	-7407
▁Spani	-7408
▁deity	-7409
▁spoke	-7410
ersonal	-7411
istence	-7412
natural	-7413
▁Darwin	-7414
▁column	-7415
▁corals	-7416
▁elites	-7417
▁legend	-7418
▁magist	-7419
▁metals	-7420
▁output	-7421
▁proced	-7422
▁safety	-7423
▁shaped	-7424
chnology	-7425
elestial	-7426
▁Dynasty	-7427
▁grounds	-7428
▁nebulae	-7429
▁village	-7430
▁worship	-7431
▁Frankish	-7432
▁articles	-7433
▁blockade	-7434
▁enormous	-7435
▁enslaved	-7436
▁quantity	-7437
▁sections	-7438
▁teaching	-7439
▁ultimate	-7440
▁valuable	-7441
▁compounds	-7442
▁detection	-7443
▁dynasties	-7444
▁occurring	-7445
▁permitted	-7446
▁assistance	-7447
▁continuing	-7448
▁geographic	-7449
▁interested	-7450
▁investment	-7451
▁systematic	-7452
▁variations	-7453
▁nationalism	-7454
▁geographical	-7455
▁contributions	-7456
▁classification	-7457
és	-7458
esp	-7459
iat	-7460
ida	-7461
iti	-7462
▁39	-7463
▁Bu	-7464
][28	-7465
ette	-7466
iral	-7467
umed	-7468
▁Adm	-7469
▁Cat	-7470
▁Hal	-7471
▁Inf	-7472
▁Pap	-7473
▁kin	-7474
▁wet	-7475
being	-7476
ellow	-7477
rance	-7478
▁2021	-7479
▁Educ	-7480
▁Vers	-7481
▁craf	-7482
▁none	-7483
▁pole	-7484
.[169]	-7485
.[172]	-7486
ection	-7487
▁Upper	-7488
▁chain	-7489
▁going	-7490
▁seals	-7491
▁stood	-7492
▁teach	-7493
▁trigg	-7494
amation	-7495
ropolis	-7496
▁Colomb	-7497
▁Guinea	-7498
▁Hubble	-7499
▁cattle	-7500
▁commod	-7501
▁extend	-7502
▁rarely	-7503
ographer	-7504
▁Neptune	-7505
▁chronic	-7506
▁comprom	-7507
▁escaped	-7508
▁gradual	-7509
▁opening	-7510
▁Marshall	-7511
▁attended	-7512
▁category	-7513
▁frontier	-7514
▁galactic	-7515
▁spending	-7516
▁Colosseum	-7517
▁recognize	-7518
▁residents	-7519
▁responses	-7520
▁Historians	-7521
▁commanders	-7522
▁complexity	-7523
▁association	-7524
▁measurement	-7525
▁-	-7526
[14	-7527
gon	-7528
ima	-7529
run	-7530
▁('	-7531
bury	-7532
enin	-7533
ivia	-7534
olon	-7535
tegr	-7536
uria	-7537
▁182	-7538
▁Sec	-7539
▁Tok	-7540
▁dog	-7541
esian	-7542
itary	-7543
raham	-7544
ukary	-7545
▁2019	-7546
▁Carl	-7547
▁Wild	-7548
▁band	-7549
▁biom	-7550
▁mamm	-7551
▁note	-7552
▁arose	-7553
▁enact	-7554
▁parad	-7555
▁sugar	-7556
Saharan	-7557
cession	-7558
reeding	-7559
▁Afghan	-7560
▁Aztecs	-7561
▁Caucas	-7562
▁Public	-7563
▁School	-7564
▁margin	-7565
▁strugg	-7566
▁tribal	-7567
▁Environ	-7568
▁Georgia	-7569
▁appoint	-7570
▁charter	-7571
▁clearly	-7572
▁conspir	-7573
▁cuisine	-7574
▁illness	-7575
▁message	-7576
▁assembly	-7577
▁explicit	-7578
▁instruct	-7579
▁somewhat	-7580
▁Agreement	-7581
▁Etruscans	-7582
▁acknowled	-7583
▁predecess	-7584
▁republics	-7585
▁Department	-7586
▁translated	-7587
▁essentially	-7588
▁potentially	-7589
CC	-7590
ua	-7591
▁34	-7592
▁Jr	-7593
▁Ob	-7594
.[48	-7595
exts	-7596
▁Hab	-7597
▁Mas	-7598
▁Raj	-7599
▁Tai	-7600
▁XII	-7601
▁pul	-7602
▁vot	-7603
insic	-7604
level	-7605
named	-7606
pping	-7607
▁Qing	-7608
.[164]	-7609
.[174]	-7610
.[179]	-7611
.[181]	-7612
ailles	-7613
ptical	-7614
▁Anton	-7615
▁Urban	-7616
▁catal	-7617
▁coins	-7618
▁decay	-7619
▁fuels	-7620
▁surve	-7621
hemical	-7622
stellar	-7623
▁Observ	-7624
▁exclud	-7625
▁twenty	-7626
colonial	-7627
▁Denmark	-7628
▁Freedom	-7629
▁aggress	-7630
▁comment	-7631
▁creates	-7632
▁nucleus	-7633
▁persons	-7634
▁unpreced	-7635
▁behaviour	-7636
▁celestial	-7637
▁returning	-7638
▁substance	-7639
▁documented	-7640
▁quantities	-7641
▁transported	-7642
▁economically	-7643
37	-7644
[8	-7645
va	-7646
aan	-7647
vil	-7648
down	-7649
ogly	-7650
otal	-7651
▁ine	-7652
akers	-7653
opher	-7654
riers	-7655
▁Hong	-7656
▁bind	-7657
▁boyc	-7658
▁cous	-7659
▁edge	-7660
▁furn	-7661
▁lith	-7662
▁soph	-7663
.[148]	-7664
.[192]	-7665
.[208]	-7666
rators	-7667
reated	-7668
▁conce	-7669
▁epist	-7670
▁erect	-7671
▁exile	-7672
▁green	-7673
▁Baltic	-7674
▁burned	-7675
▁choice	-7676
▁compos	-7677
▁deemed	-7678
▁engage	-7679
▁gather	-7680
▁illust	-7681
▁statue	-7682
▁Balkans	-7683
▁Supreme	-7684
▁compens	-7685
▁cooling	-7686
▁debated	-7687
▁credited	-7688
▁moisture	-7689
▁produces	-7690
▁speakers	-7691
▁ancestors	-7692
▁opponents	-7693
▁suffering	-7694
▁recognised	-7695
▁possessions	-7696
▁Organization	-7697
▁participants	-7698
▁unprecedented	-7699
▁−	-7700
▁Ay	-7701
▁vo	-7702
opic	-7703
thur	-7704
▁152	-7705
▁RNA	-7706
▁Tre	-7707
▁Win	-7708
▁cha	-7709
▁nat	-7710
astro	-7711
▁Bank	-7712
▁Earl	-7713
▁Mark	-7714
▁Slav	-7715
▁hope	-7716
▁rebu	-7717
▁root	-7718
▁soft	-7719
▁susp	-7720
▁task	-7721
ocrats	-7722
olving	-7723
▁Adams	-7724
▁Norse	-7725
▁Parth	-7726
▁moves	-7727
▁price	-7728
▁roots	-7729
▁steps	-7730
▁twice	-7731
▁50,000	-7732
▁Amazon	-7733
▁Desert	-7734
▁budget	-7735
▁denied	-7736
▁fusion	-7737
▁mutual	-7738
▁poison	-7739
speaking	-7740
▁enabled	-7741
▁founder	-7742
▁recover	-7743
▁stopped	-7744
▁wounded	-7745
▁commerce	-7746
▁gathered	-7747
▁happened	-7748
▁murdered	-7749
▁orbiting	-7750
▁taxation	-7751
▁temporary	-7752
▁apparently	-7753
▁celebrated	-7754
▁emphasized	-7755
▁representatives	-7756
6%	-7757
uf	-7758
yu	-7759
zi	-7760
–5	-7761
–7	-7762
Ind	-7763
[10	-7764
aug	-7765
emb	-7766
–10	-7767
▁35	-7768
▁4,	-7769
iang	-7770
ogue	-7771
▁Alb	-7772
▁Aqu	-7773
borne	-7774
icity	-7775
ifies	-7776
quest	-7777
riors	-7778
▁2022	-7779
▁Sing	-7780
▁Turk	-7781
▁heli	-7782
▁mand	-7783
▁remn	-7784
▁zero	-7785
.[173]	-7786
.[175]	-7787
.[188]	-7788
abited	-7789
iances	-7790
▁Labor	-7791
▁Leban	-7792
▁facts	-7793
▁honor	-7794
▁shore	-7795
▁soils	-7796
▁wages	-7797
▁Stalin	-7798
▁promin	-7799
▁string	-7800
▁trying	-7801
▁Iceland	-7802
▁Temüjin	-7803
▁guarant	-7804
▁implies	-7805
▁loyalty	-7806
▁student	-7807
▁unusual	-7808
clamation	-7809
ineteenth	-7810
▁aircraft	-7811
▁assigned	-7812
▁besieged	-7813
▁doctrine	-7814
▁humanity	-7815
▁tensions	-7816
▁advocated	-7817
▁eruptions	-7818
▁geography	-7819
▁solutions	-7820
▁Throughout	-7821
▁flourished	-7822
▁legitimate	-7823
▁mathematic	-7824
▁disciplines	-7825
▁distinctive	-7826
▁permanently	-7827
▁productivity	-7828
▁transportation	-7829
34	-7830
ava	-7831
dad	-7832
lar	-7833
vir	-7834
▁Ap	-7835
aten	-7836
dess	-7837
heim	-7838
ieth	-7839
owed	-7840
▁161	-7841
▁Cyp	-7842
▁Sah	-7843
▁Sid	-7844
▁try	-7845
itals	-7846
▁Goth	-7847
▁epid	-7848
▁seas	-7849
▁shar	-7850
▁util	-7851
.[163]	-7852
.[165]	-7853
.[167]	-7854
.[180]	-7855
.[196]	-7856
▁Galax	-7857
▁Lower	-7858
▁Machu	-7859
▁angle	-7860
▁cited	-7861
▁grown	-7862
▁piece	-7863
▁store	-7864
angered	-7865
▁Arabia	-7866
▁Kepler	-7867
▁Norway	-7868
▁famine	-7869
▁tended	-7870
▁terror	-7871
▁tribun	-7872
▁vassal	-7873
▁Anthrop	-7874
▁Classic	-7875
▁Iberian	-7876
▁awarded	-7877
▁briefly	-7878
▁company	-7879
▁crossed	-7880
▁deliber	-7881
▁legions	-7882
▁arranged	-7883
▁eclipses	-7884
▁electron	-7885
▁massacre	-7886
▁moderate	-7887
▁speaking	-7888
▁wildfire	-7889
▁Institute	-7890
▁displayed	-7891
▁mortality	-7892
▁sophistic	-7893
▁technical	-7894
▁Versailles	-7895
▁commitment	-7896
▁gravitation	-7897
▁transmission	-7898
▁Enlightenment	-7899
▁concentrations	-7900
35	-7901
acc	-7902
anni	-7903
ibly	-7904
otta	-7905
ruck	-7906
▁(10	-7907
▁die	-7908
anges	-7909
araoh	-7910
isher	-7911
lived	-7912
ourse	-7913
versy	-7914
▁2015	-7915
▁Free	-7916
▁Here	-7917
▁Sele	-7918
▁evap	-7919
.[229]	-7920
abinet	-7921
bishop	-7922
energy	-7923
opular	-7924
opylae	-7925
teenth	-7926
ulture	-7927
▁Lenin	-7928
▁Space	-7929
▁alleg	-7930
▁bands	-7931
▁homes	-7932
▁links	-7933
▁logic	-7934
▁rebel	-7935
▁simpl	-7936
▁attend	-7937
▁aurora	-7938
▁begins	-7939
▁export	-7940
▁weaken	-7941
inations	-7942
▁affects	-7943
▁defines	-7944
▁enforce	-7945
▁legally	-7946
▁legitim	-7947
▁nonviol	-7948
▁passing	-7949
▁shifted	-7950
▁showing	-7951
struction	-7952
▁approved	-7953
▁dramatic	-7954
▁duration	-7955
▁findings	-7956
▁recycled	-7957
▁Spaniards	-7958
▁abolition	-7959
▁competing	-7960
▁elaborate	-7961
▁organised	-7962
▁shogunate	-7963
▁foundations	-7964
▁translation	-7965
▁difficulties	-7966
kh	-7967
–9	-7968
oty	-7969
uit	-7970
upp	-7971
▁45	-7972
▁Ax	-7973
,[14	-7974
agas	-7975
date	-7976
enna	-7977
heng	-7978
oday	-7979
▁Dur	-7980
▁How	-7981
▁bow	-7982
▁ori	-7983
▁Apol	-7984
▁NASA	-7985
▁Nich	-7986
▁bary	-7987
▁copy	-7988
▁fert	-7989
▁forb	-7990
▁outc	-7991
.[171]	-7992
.[195]	-7993
estone	-7994
hedral	-7995
▁Artic	-7996
▁Colon	-7997
▁games	-7998
▁juris	-7999
▁tombs	-8000
iblical	-8001
▁assert	-8002
▁bottom	-8003
▁compre	-8004
▁encoun	-8005
▁golden	-8006
▁insect	-8007
▁launch	-8008
▁losing	-8009
▁mercen	-8010
▁revers	-8011
▁funding	-8012
▁happens	-8013
▁hunting	-8014
▁protein	-8015
▁reading	-8016
▁Johannes	-8017
▁Russians	-8018
▁adoption	-8019
▁civilian	-8020
▁commemor	-8021
▁crossing	-8022
▁manifest	-8023
▁reliable	-8024
▁latitudes	-8025
▁sovereign	-8026
▁functional	-8027
▁television	-8028
▁Thermopylae	-8029
▁description	-8030
▁immigration	-8031
▁assassination	-8032
alt	-8033
edd	-8034
era	-8035
,[17	-8036
ader	-8037
ario	-8038
ayan	-8039
empl	-8040
ethe	-8041
ffic	-8042
iffs	-8043
othe	-8044
▁Cre	-8045
▁raw	-8046
▁vic	-8047
erman	-8048
izers	-8049
onics	-8050
▁Greg	-8051
▁Kant	-8052
▁Olym	-8053
▁brut	-8054
▁flag	-8055
▁gard	-8056
.[193]	-8057
ailing	-8058
atform	-8059
erical	-8060
▁Artax	-8061
▁Venet	-8062
▁aware	-8063
▁harsh	-8064
▁staff	-8065
▁tends	-8066
▁tribe	-8067
▁vapor	-8068
discipl	-8069
▁borrow	-8070
▁consul	-8071
▁decomp	-8072
▁easier	-8073
▁filled	-8074
▁headed	-8075
▁Eurasia	-8076
▁Iranian	-8077
▁abandon	-8078
▁biomass	-8079
▁confirm	-8080
▁mineral	-8081
▁outcome	-8082
▁proceed	-8083
▁traders	-8084
▁turning	-8085
ographers	-8086
▁contexts	-8087
▁currency	-8088
▁defended	-8089
▁depicted	-8090
▁disputes	-8091
▁geometry	-8092
▁peaceful	-8093
▁traveled	-8094
▁treaties	-8095
▁Territory	-8096
▁condemned	-8097
▁variables	-8098
▁victories	-8099
▁conference	-8100
▁vulnerable	-8101
▁Development	-8102
▁instability	-8103
▁specialized	-8104
▁Mesopotamian	-8105
▁occasionally	-8106
▁anthropologists	-8107
[13	-8108
ude	-8109
wed	-8110
▁3,	-8111
▁Av	-8112
,[15	-8113
adel	-8114
inia	-8115
inus	-8116
whel	-8117
▁Bre	-8118
▁Hel	-8119
ocide	-8120
press	-8121
produ	-8122
years	-8123
▁Disc	-8124
▁Thir	-8125
▁anat	-8126
▁fulf	-8127
▁unex	-8128
.[189]	-8129
.[214]	-8130
ochtit	-8131
▁evacu	-8132
▁farms	-8133
▁smoke	-8134
▁voted	-8135
▁Humans	-8136
▁eukary	-8137
▁feared	-8138
▁senior	-8139
▁arguing	-8140
▁finding	-8141
▁sending	-8142
▁defining	-8143
▁ideology	-8144
▁proposal	-8145
▁tectonic	-8146
▁thoughts	-8147
▁uprising	-8148
▁Operation	-8149
▁Tenochtit	-8150
▁aftermath	-8151
▁scattered	-8152
▁Scientific	-8153
▁astronomer	-8154
▁difficulty	-8155
▁efficiency	-8156
▁processing	-8157
▁accelerated	-8158
▁aristocracy	-8159
▁excavations	-8160
▁participate	-8161
▁representations	-8162
ei	-8163
hm	-8164
ny	-8165
tw	-8166
ati	-8167
bet	-8168
bra	-8169
eda	-8170
ink	-8171
lit	-8172
oto	-8173
▁44	-8174
,[16	-8175
fort	-8176
fred	-8177
gets	-8178
icus	-8179
idel	-8180
ihil	-8181
ithe	-8182
yses	-8183
▁145	-8184
▁Kar	-8185
▁gam	-8186
▁mir	-8187
ingly	-8188
▁Much	-8189
▁earn	-8190
.[166]	-8191
.[177]	-8192
alling	-8193
ogical	-8194
▁Bohem	-8195
▁Cyrus	-8196
▁Niger	-8197
▁Santa	-8198
▁coinc	-8199
▁fewer	-8200
▁penal	-8201
▁thing	-8202
▁treas	-8203
▁write	-8204
anguage	-8205
ception	-8206
▁assist	-8207
▁duties	-8208
▁genome	-8209
▁happen	-8210
▁helium	-8211
▁passes	-8212
▁remove	-8213
▁seemed	-8214
▁sounds	-8215
▁survey	-8216
ifferent	-8217
▁Burgund	-8218
▁Service	-8219
▁consult	-8220
▁contrad	-8221
▁dispers	-8222
▁reaches	-8223
▁Colombia	-8224
▁garrison	-8225
▁hierogly	-8226
▁memories	-8227
▁supernov	-8228
▁warriors	-8229
▁extending	-8230
▁personnel	-8231
▁spacetime	-8232
▁spreading	-8233
▁Artaxerxes	-8234
▁conclusion	-8235
▁integrated	-8236
▁negotiated	-8237
▁prosperity	-8238
▁respective	-8239
▁satellites	-8240
▁connections	-8241
▁simultaneously	-8242
da	-8243
err	-8244
ico	-8245
▁ma	-8246
anes	-8247
bell	-8248
ider	-8249
rage	-8250
urgy	-8251
▁Gil	-8252
▁Isa	-8253
▁Pir	-8254
▁Sud	-8255
▁gir	-8256
▁sit	-8257
iants	-8258
ivism	-8259
risis	-8260
▁Form	-8261
▁drug	-8262
▁guns	-8263
▁prox	-8264
▁rays	-8265
▁sulf	-8266
▁symp	-8267
.[159]	-8268
.[197]	-8269
.[203]	-8270
ocaust	-8271
▁Years	-8272
▁arrow	-8273
▁birds	-8274
▁globe	-8275
▁mines	-8276
▁steel	-8277
▁Center	-8278
▁criter	-8279
▁invade	-8280
▁minist	-8281
▁phosph	-8282
▁recomm	-8283
▁remote	-8284
▁subsid	-8285
igration	-8286
▁Natural	-8287
▁emitted	-8288
▁exactly	-8289
▁illegal	-8290
▁spatial	-8291
▁traffic	-8292
▁triumph	-8293
sequently	-8294
▁Astronom	-8295
▁Athenian	-8296
▁Governor	-8297
▁Prussian	-8298
▁anything	-8299
▁informed	-8300
▁monument	-8301
▁stimulus	-8302
▁encourage	-8303
▁preferred	-8304
▁dimensions	-8305
▁electrical	-8306
▁exoplanets	-8307
▁friendship	-8308
▁indicating	-8309
▁reputation	-8310
▁Afghanistan	-8311
▁consequence	-8312
▁persecution	-8313
▁unconscious	-8314
▁Independence	-8315
▁Tenochtitlan	-8316
▁conventional	-8317
▁domesticated	-8318
▁participated	-8319
▁representative	-8320
Wh	-8321
uh	-8322
aka	-8323
aya	-8324
def	-8325
ona	-8326
oys	-8327
▁(6	-8328
▁du	-8329
adem	-8330
comp	-8331
oded	-8332
roll	-8333
▁Tar	-8334
▁ash	-8335
▁fit	-8336
▁tru	-8337
▁van	-8338
Roman	-8339
aming	-8340
aping	-8341
ashes	-8342
▁Fort	-8343
▁alph	-8344
▁culm	-8345
▁room	-8346
▁tail	-8347
▁tool	-8348
.[190]	-8349
active	-8350
irming	-8351
▁5,000	-8352
▁Child	-8353
▁Domin	-8354
▁Using	-8355
▁acted	-8356
▁drain	-8357
▁insur	-8358
▁proof	-8359
▁raise	-8360
▁youth	-8361
racotta	-8362
▁Arthur	-8363
▁Indies	-8364
▁Taiwan	-8365
▁Wilson	-8366
▁stabil	-8367
▁voting	-8368
▁Mercury	-8369
▁Swedish	-8370
▁exports	-8371
▁feeling	-8372
▁goddess	-8373
▁pyramid	-8374
▁serving	-8375
▁someone	-8376
▁warning	-8377
▁Caucasus	-8378
▁deterior	-8379
▁emerging	-8380
▁fortress	-8381
ancipation	-8382
▁alliances	-8383
▁regularly	-8384
▁everything	-8385
▁facilities	-8386
▁provincial	-8387
▁subjective	-8388
▁controversy	-8389
▁manuscripts	-8390
▁contributing	-8391
▁instrumental	-8392
▁presidential	-8393
1%	-8394
3)	-8395
IA	-8396
▁x	-8397
aic	-8398
bel	-8399
mas	-8400
opl	-8401
pow	-8402
usa	-8403
who	-8404
▁47	-8405
▁Eu	-8406
eper	-8407
ooth	-8408
▁Att	-8409
▁Hun	-8410
▁Rob	-8411
▁aer	-8412
▁fur	-8413
▁uns	-8414
ctive	-8415
oided	-8416
▁Good	-8417
▁Hind	-8418
▁Tsar	-8419
▁emit	-8420
▁lose	-8421
▁pair	-8422
▁pref	-8423
▁silk	-8424
▁sort	-8425
▁tied	-8426
▁week	-8427
▁wine	-8428
emeter	-8429
idency	-8430
ighter	-8431
ouring	-8432
▁Front	-8433
▁draft	-8434
▁lifet	-8435
▁rhyth	-8436
▁spons	-8437
▁subdu	-8438
▁Philos	-8439
▁academ	-8440
▁artist	-8441
▁beings	-8442
▁corpor	-8443
▁museum	-8444
▁preval	-8445
▁remark	-8446
▁struck	-8447
▁virtue	-8448
▁liberty	-8449
▁officer	-8450
▁secured	-8451
gradation	-8452
▁Plutarch	-8453
▁Scholars	-8454
▁forecast	-8455
▁overwhel	-8456
▁preserve	-8457
▁profound	-8458
▁Indonesia	-8459
▁attracted	-8460
▁candidate	-8461
▁efficient	-8462
▁execution	-8463
▁indicated	-8464
▁inhabited	-8465
▁partition	-8466
▁sequences	-8467
▁telescope	-8468
otechnology	-8469
▁adaptation	-8470
▁prohibited	-8471
▁punishment	-8472
▁Christopher	-8473
▁chromosomes	-8474
▁predictions	-8475
▁Revolutionary	-8476
▁predominantly	-8477
▁photosynthesis	-8478
tes	-8479
zer	-8480
▁Na	-8481
▁wa	-8482
fire	-8483
odyn	-8484
uled	-8485
▁159	-8486
▁Dou	-8487
▁Fem	-8488
▁Hon	-8489
▁Ram	-8490
▁Unt	-8491
▁hab	-8492
adesh	-8493
ashed	-8494
elect	-8495
itors	-8496
orous	-8497
▁Beng	-8498
▁axis	-8499
▁dens	-8500
▁hour	-8501
▁jobs	-8502
▁pack	-8503
▁pand	-8504
▁roll	-8505
.[168]	-8506
.[170]	-8507
.[187]	-8508
.[206]	-8509
.[209]	-8510
inians	-8511
spring	-8512
ustain	-8513
▁Based	-8514
▁Crime	-8515
▁Minor	-8516
▁Nobel	-8517
▁Short	-8518
▁algae	-8519
▁drift	-8520
▁marks	-8521
▁tasks	-8522
▁Palace	-8523
▁Strait	-8524
▁fertil	-8525
▁floods	-8526
▁nuclei	-8527
▁traced	-8528
▁twelve	-8529
▁undert	-8530
▁whites	-8531
ependent	-8532
▁Corinth	-8533
▁Finally	-8534
▁Studies	-8535
▁angular	-8536
▁avoided	-8537
▁charges	-8538
▁immense	-8539
▁peasant	-8540
▁terrain	-8541
▁attested	-8542
▁branches	-8543
▁feelings	-8544
▁equations	-8545
▁triggered	-8546
▁agreements	-8547
▁popularity	-8548
▁Australians	-8549
▁achievements	-8550
▁assassinated	-8551
▁unemployment	-8552
▁urbanization	-8553
▁transformation	-8554
TO	-8555
bit	-8556
cut	-8557
ugh	-8558
▁49	-8559
▁90	-8560
▁AU	-8561
,[19	-8562
Hung	-8563
acus	-8564
cius	-8565
ella	-8566
rost	-8567
stan	-8568
▁30%	-8569
▁Tol	-8570
▁bed	-8571
▁gap	-8572
▁ric	-8573
▁tur	-8574
▁ven	-8575
acuum	-8576
human	-8577
onian	-8578
▁Conc	-8579
▁Dead	-8580
▁Geno	-8581
▁Hatt	-8582
▁Homo	-8583
▁ages	-8584
▁diet	-8585
▁fost	-8586
▁myst	-8587
▁phon	-8588
▁plas	-8589
▁sets	-8590
.[215]	-8591
.[225]	-8592
.[226]	-8593
.[230]	-8594
ashion	-8595
rolled	-8596
▁Force	-8597
▁Plato	-8598
▁bonds	-8599
▁calls	-8600
▁chron	-8601
▁dress	-8602
▁newsp	-8603
▁plain	-8604
▁Crisis	-8605
▁Mehmed	-8606
▁Quebec	-8607
▁Seleuc	-8608
▁Xerxes	-8609
▁crafts	-8610
▁culmin	-8611
▁entity	-8612
▁inland	-8613
▁regist	-8614
▁review	-8615
etheless	-8616
▁Romania	-8617
▁anticip	-8618
▁decolon	-8619
▁deliver	-8620
▁partial	-8621
▁plastic	-8622
▁victims	-8623
▁arriving	-8624
▁attached	-8625
▁breaking	-8626
▁disorder	-8627
▁meanings	-8628
▁monaster	-8629
▁pastoral	-8630
▁prompted	-8631
▁executive	-8632
▁factories	-8633
▁prevented	-8634
▁temperate	-8635
▁nineteenth	-8636
▁observable	-8637
▁propaganda	-8638
▁reinforced	-8639
▁repeatedly	-8640
▁withdrawal	-8641
▁Catholicism	-8642
▁determining	-8643
▁rainforests	-8644
▁institutional	-8645
bur	-8646
erg	-8647
hus	-8648
–14	-8649
▁Go	-8650
▁Li	-8651
▁mm	-8652
][32	-8653
aimy	-8654
aism	-8655
page	-8656
velt	-8657
▁700	-8658
▁GDP	-8659
▁Lee	-8660
▁Vas	-8661
▁rac	-8662
facts	-8663
ogene	-8664
urred	-8665
▁Fore	-8666
▁cens	-8667
▁knew	-8668
▁lies	-8669
▁obsc	-8670
▁surf	-8671
.[205]	-8672
andard	-8673
arting	-8674
ithuan	-8675
▁Basin	-8676
▁Plate	-8677
▁Prize	-8678
▁Roose	-8679
▁Until	-8680
▁Where	-8681
▁acres	-8682
▁crowd	-8683
▁gains	-8684
▁inaug	-8685
▁moons	-8686
▁sight	-8687
▁Marcus	-8688
▁listed	-8689
▁prosec	-8690
▁respir	-8691
▁Belgium	-8692
▁heating	-8693
▁observe	-8694
▁seismic	-8695
▁statues	-8696
▁Cultural	-8697
▁Ethiopia	-8698
▁Hittites	-8699
▁Nicholas	-8700
▁concrete	-8701
▁educated	-8702
▁familiar	-8703
▁limiting	-8704
▁platform	-8705
▁Holocaust	-8706
▁Palestine	-8707
▁Roosevelt	-8708
▁addressed	-8709
▁aesthetic	-8710
▁defeating	-8711
▁entertain	-8712
▁measuring	-8713
▁naturally	-8714
▁overthrow	-8715
▁relatives	-8716
▁calculated	-8717
▁inequality	-8718
▁personally	-8719
▁regulation	-8720
▁underlying	-8721
▁Protestants	-8722
▁ethnography	-8723
▁interstellar	-8724
▁preservation	-8725
In	-8726
but	-8727
cas	-8728
igs	-8729
mic	-8730
vol	-8731
weg	-8732
▁sn	-8733
.[50	-8734
aths	-8735
etta	-8736
lies	-8737
ogen	-8738
osis	-8739
ques	-8740
rand	-8741
view	-8742
zech	-8743
▁Bah	-8744
▁Heb	-8745
▁Hur	-8746
▁Ibn	-8747
▁Jan	-8748
▁Ved	-8749
▁bit	-8750
assus	-8751
elian	-8752
omous	-8753
▁Karl	-8754
▁VIII	-8755
▁epis	-8756
▁inqu	-8757
▁khan	-8758
▁plot	-8759
▁spot	-8760
.[186]	-8761
.[202]	-8762
istent	-8763
itious	-8764
▁Czech	-8765
▁Event	-8766
▁disin	-8767
▁fifth	-8768
▁funds	-8769
aration	-8770
ginning	-8771
ogether	-8772
versely	-8773
▁30,000	-8774
▁Pierre	-8775
▁coasts	-8776
▁indeed	-8777
▁manage	-8778
▁perpet	-8779
▁phrase	-8780
▁vacuum	-8781
ountered	-8782
▁300,000	-8783
▁Confuci	-8784
▁broadly	-8785
▁domains	-8786
▁farther	-8787
▁fiction	-8788
▁heavier	-8789
▁raising	-8790
▁request	-8791
▁stimuli	-8792
▁trigger	-8793
▁ancestry	-8794
▁centered	-8795
▁deposits	-8796
▁eruption	-8797
▁prestige	-8798
▁reserves	-8799
▁seasonal	-8800
▁Education	-8801
▁Francisco	-8802
▁hierarchy	-8803
▁motivated	-8804
▁reservoir	-8805
▁tectonics	-8806
▁travelled	-8807
▁attempting	-8808
▁presidency	-8809
▁suppressed	-8810
▁thereafter	-8811
▁citizenship	-8812
▁cultivation	-8813
▁degradation	-8814
▁encompasses	-8815
▁encountered	-8816
▁acceleration	-8817
▁contribution	-8818
▁universities	-8819
9)	-8820
RI	-8821
ja	-8822
gem	-8823
iry	-8824
jan	-8825
tar	-8826
▁Ox	-8827
char	-8828
irds	-8829
olet	-8830
rust	-8831
ston	-8832
vert	-8833
▁107	-8834
▁151	-8835
▁156	-8836
▁Are	-8837
▁Dis	-8838
▁Mam	-8839
▁Pot	-8840
▁Ste	-8841
▁Vin	-8842
▁Xia	-8843
▁lob	-8844
acent	-8845
arest	-8846
idian	-8847
third	-8848
▁1830	-8849
▁Ivan	-8850
▁maps	-8851
▁prem	-8852
▁rank	-8853
▁rear	-8854
▁scen	-8855
▁wear	-8856
.[183]	-8857
.[198]	-8858
.[217]	-8859
.[221]	-8860
igated	-8861
▁Manch	-8862
▁hence	-8863
▁hered	-8864
▁manip	-8865
▁solve	-8866
▁vital	-8867
▁Cyprus	-8868
▁Danish	-8869
▁Galaxy	-8870
▁alphab	-8871
▁career	-8872
▁cousin	-8873
▁hydrol	-8874
▁Harappa	-8875
▁Liberal	-8876
▁Prussia	-8877
▁anxiety	-8878
▁extract	-8879
▁morning	-8880
▁sensory	-8881
▁signals	-8882
▁volcano	-8883
▁Austrian	-8884
▁examined	-8885
▁messages	-8886
▁producer	-8887
▁straight	-8888
▁attitudes	-8889
▁justified	-8890
▁millennia	-8891
▁promoting	-8892
▁provision	-8893
▁Bolsheviks	-8894
▁conversion	-8895
▁motivation	-8896
▁resolution	-8897
▁counterpart	-8898
▁descriptions	-8899
▁restrictions	-8900
▁unsuccessful	-8901
▁interpretations	-8902
9%	-8903
CL	-8904
2),	-8905
imb	-8906
opy	-8907
rie	-8908
sex	-8909
▁PA	-8910
."[4	-8911
.[49	-8912
hard	-8913
iast	-8914
otyp	-8915
pine	-8916
pled	-8917
▁Ale	-8918
▁Fre	-8919
▁Has	-8920
▁Ill	-8921
▁Rog	-8922
▁Tex	-8923
▁sam	-8924
found	-8925
inder	-8926
inter	-8927
iolet	-8928
iotic	-8929
storm	-8930
▁Corn	-8931
▁push	-8932
.[184]	-8933
.[191]	-8934
.[216]	-8935
iphate	-8936
▁Comet	-8937
▁Muham	-8938
▁Small	-8939
▁finds	-8940
▁hoped	-8941
▁ranks	-8942
▁sleep	-8943
▁tests	-8944
achment	-8945
riction	-8946
▁20,000	-8947
▁Bulgar	-8948
▁afford	-8949
▁agents	-8950
▁bridge	-8951
▁coined	-8952
▁debris	-8953
▁divide	-8954
▁mature	-8955
▁timber	-8956
▁unless	-8957
▁wooden	-8958
▁citizen	-8959
▁clothes	-8960
▁housing	-8961
▁keeping	-8962
▁longest	-8963
▁natives	-8964
▁planted	-8965
▁sailing	-8966
▁testing	-8967
▁tropics	-8968
▁Colonial	-8969
▁Universe	-8970
▁ancestor	-8971
▁claiming	-8972
▁climates	-8973
▁heritage	-8974
▁wildlife	-8975
▁assembled	-8976
▁feminists	-8977
▁ownership	-8978
▁behavioral	-8979
▁discussion	-8980
▁mechanical	-8981
▁strategies	-8982
▁facilitated	-8983
▁obligations	-8984
▁reconstruct	-8985
▁wavelengths	-8986
▁applications	-8987
▁availability	-8988
▁considerably	-8989
▁dramatically	-8990
▁implications	-8991
gi	-8992
400	-8993
asc	-8994
ibn	-8995
iot	-8996
oli	-8997
sur	-8998
ube	-8999
▁(7	-9000
▁75	-9001
▁Do	-9002
▁EU	-9003
atem	-9004
▁(1.	-9005
▁158	-9006
▁Leo	-9007
▁Tas	-9008
artes	-9009
ected	-9010
iture	-9011
oponn	-9012
ortex	-9013
ragon	-9014
tiles	-9015
▁(200	-9016
▁2017	-9017
▁Bant	-9018
▁Test	-9019
▁bore	-9020
▁chap	-9021
▁kins	-9022
▁rice	-9023
▁seat	-9024
▁shad	-9025
▁vent	-9026
.[194]	-9027
.[204]	-9028
.[210]	-9029
ateral	-9030
athere	-9031
vation	-9032
▁Brown	-9033
▁Corps	-9034
▁Today	-9035
▁daimy	-9036
▁heard	-9037
▁match	-9038
▁trust	-9039
risoned	-9040
▁oppose	-9041
▁seeing	-9042
▁spaces	-9043
heastern	-9044
ocentric	-9045
▁Project	-9046
▁chamber	-9047
▁discont	-9048
▁geology	-9049
▁melting	-9050
▁mounted	-9051
▁regimes	-9052
▁seconds	-9053
▁Moreover	-9054
▁dominate	-9055
▁lifetime	-9056
▁migrated	-9057
▁textiles	-9058
▁abundance	-9059
▁capturing	-9060
▁portrayed	-9061
▁referring	-9062
▁retreated	-9063
▁teachings	-9064
▁virtually	-9065
▁afterwards	-9066
▁provisions	-9067
▁culminating	-9068
▁devastating	-9069
▁ideological	-9070
▁personality	-9071
▁scholarship	-9072
▁exploitation	-9073
";	-9074
3%	-9075
Th	-9076
lv	-9077
ée	-9078
800	-9079
aea	-9080
ano	-9081
ees	-9082
nal	-9083
▁Os	-9084
▁af	-9085
aric	-9086
eath	-9087
▁(0.	-9088
▁Ext	-9089
▁Pun	-9090
▁Shi	-9091
▁Tro	-9092
▁asc	-9093
arity	-9094
armed	-9095
enses	-9096
lines	-9097
▁1900	-9098
▁1940	-9099
▁Ethn	-9100
▁Kent	-9101
▁Know	-9102
▁Pass	-9103
▁Scip	-9104
▁Stat	-9105
▁arte	-9106
▁conj	-9107
▁eyes	-9108
▁gest	-9109
▁intu	-9110
▁meat	-9111
▁pleb	-9112
▁skin	-9113
▁tall	-9114
▁want	-9115
.[207]	-9116
.[233]	-9117
update	-9118
▁Patri	-9119
▁Siber	-9120
▁eleph	-9121
▁train	-9122
▁lowest	-9123
▁neuros	-9124
▁ranges	-9125
▁submar	-9126
▁Abraham	-9127
▁Charter	-9128
▁Judaism	-9129
▁altered	-9130
▁beneath	-9131
▁drawing	-9132
▁equally	-9133
▁harvest	-9134
▁journey	-9135
▁pursued	-9136
▁quarter	-9137
▁succeed	-9138
formation	-9139
▁Peloponn	-9140
▁Security	-9141
▁entities	-9142
▁exercise	-9143
▁pandemic	-9144
▁selected	-9145
▁stations	-9146
▁supplied	-9147
▁Community	-9148
▁constrain	-9149
▁similarly	-9150
▁aggressive	-9151
▁complement	-9152
▁conceptual	-9153
▁instrument	-9154
▁regardless	-9155
▁innovations	-9156
▁statistical	-9157
clarification	-9158
▁acknowledged	-9159
▁investigation	-9160
▁sophisticated	-9161
?]	-9162
aly	-9163
olt	-9164
wer	-9165
▁Jo	-9166
▁ly	-9167
cule	-9168
ibet	-9169
ipal	-9170
itor	-9171
oids	-9172
uten	-9173
wood	-9174
writ	-9175
▁134	-9176
▁20%	-9177
▁800	-9178
▁Dom	-9179
▁Kam	-9180
▁bra	-9181
▁fru	-9182
▁inn	-9183
henjo	-9184
rines	-9185
▁2013	-9186
▁2014	-9187
▁Alas	-9188
▁Mali	-9189
▁Maur	-9190
▁Move	-9191
▁Sard	-9192
▁duke	-9193
▁ring	-9194
father	-9195
▁2021,	-9196
▁Jacob	-9197
▁Light	-9198
▁Recon	-9199
▁adequ	-9200
▁doubt	-9201
▁hegem	-9202
▁label	-9203
▁Bengal	-9204
▁autumn	-9205
▁divers	-9206
▁fallen	-9207
▁flight	-9208
▁scheme	-9209
▁traded	-9210
▁Mohenjo	-9211
▁acquire	-9212
▁convert	-9213
▁devices	-9214
▁fishing	-9215
▁inflict	-9216
▁offices	-9217
▁proport	-9218
▁pursuit	-9219
▁signing	-9220
▁theolog	-9221
opulation	-9222
▁Alliance	-9223
▁Coloured	-9224
▁Medieval	-9225
▁controls	-9226
▁explains	-9227
▁factions	-9228
▁opposing	-9229
▁prospect	-9230
▁rotating	-9231
▁sentence	-9232
▁shipping	-9233
▁societal	-9234
▁tendency	-9235
▁intrinsic	-9236
▁northwest	-9237
▁continuity	-9238
▁endangered	-9239
▁immigrants	-9240
▁innovation	-9241
▁navigation	-9242
▁protecting	-9243
▁republican	-9244
▁reproduction	-9245
▁similarities	-9246
▁sufficiently	-9247
▁justification	-9248
5)	-9249
[20	-9250
mad	-9251
ota	-9252
,[18	-9253
."[5	-9254
9][1	-9255
][34	-9256
acle	-9257
ager	-9258
agon	-9259
daro	-9260
oles	-9261
ping	-9262
rics	-9263
ulum	-9264
▁(14	-9265
▁600	-9266
▁Amb	-9267
▁Bro	-9268
▁Eis	-9269
▁Far	-9270
▁lux	-9271
▁mal	-9272
andom	-9273
ptons	-9274
▁Bald	-9275
▁Init	-9276
▁Jack	-9277
▁Nahu	-9278
▁Sant	-9279
▁cart	-9280
▁sell	-9281
.[200]	-9282
.[220]	-9283
acular	-9284
atical	-9285
period	-9286
shaped	-9287
▁Alger	-9288
▁Claud	-9289
▁embod	-9290
▁entry	-9291
▁falls	-9292
▁fears	-9293
▁mouth	-9294
▁overt	-9295
▁scrib	-9296
▁surpl	-9297
▁urged	-9298
▁Apollo	-9299
▁Korean	-9300
▁Queens	-9301
▁Recent	-9302
▁castle	-9303
▁deeply	-9304
▁hurric	-9305
▁jurisd	-9306
▁surviv	-9307
▁trends	-9308
▁underm	-9309
emporary	-9310
quarters	-9311
▁200,000	-9312
▁closest	-9313
▁critics	-9314
▁designs	-9315
▁enjoyed	-9316
▁gaining	-9317
▁pharaoh	-9318
▁renewed	-9319
▁suicide	-9320
angelical	-9321
▁Franklin	-9322
▁Germanic	-9323
▁Habsburg	-9324
▁Military	-9325
▁contrary	-9326
▁disaster	-9327
▁partners	-9328
▁servants	-9329
▁temporal	-9330
▁vertical	-9331
▁warships	-9332
▁Beginning	-9333
▁Spartacus	-9334
▁childhood	-9335
▁governing	-9336
▁socialist	-9337
established	-9338
▁comparable	-9339
▁directions	-9340
▁Continental	-9341
▁controlling	-9342
▁suppression	-9343
▁requirements	-9344
▁Archaeological	-9345
vis	-9346
▁Ep	-9347
▁Ta	-9348
][4]	-9349
][5]	-9350
arat	-9351
idas	-9352
mony	-9353
olds	-9354
osen	-9355
unis	-9356
▁Ban	-9357
▁Die	-9358
▁Lat	-9359
▁Low	-9360
▁Qum	-9361
▁mac	-9362
eters	-9363
ijing	-9364
▁1500	-9365
▁arid	-9366
▁bull	-9367
▁coff	-9368
▁fron	-9369
▁inev	-9370
▁pull	-9371
▁sees	-9372
▁spar	-9373
.[185]	-9374
.[232]	-9375
aptist	-9376
atever	-9377
owners	-9378
▁1962,	-9379
▁Elect	-9380
▁abuse	-9381
▁appre	-9382
▁chart	-9383
▁codes	-9384
▁corps	-9385
▁elder	-9386
▁epoch	-9387
▁facto	-9388
▁input	-9389
▁lakes	-9390
▁recip	-9391
▁ruins	-9392
assador	-9393
▁Guatem	-9394
▁Powers	-9395
▁Scipio	-9396
▁Spring	-9397
▁Venice	-9398
▁advent	-9399
▁answer	-9400
▁behalf	-9401
▁copies	-9402
▁lifest	-9403
▁linear	-9404
▁raided	-9405
▁signal	-9406
▁vision	-9407
▁warned	-9408
cultural	-9409
▁Hundred	-9410
▁Lebanon	-9411
▁Stephen	-9412
▁astroph	-9413
▁epistem	-9414
▁fashion	-9415
▁harmful	-9416
▁methane	-9417
▁Movement	-9418
▁breeding	-9419
▁entering	-9420
▁inferior	-9421
▁invaders	-9422
▁latitude	-9423
▁minerals	-9424
▁nutrient	-9425
▁operated	-9426
▁remnants	-9427
▁severely	-9428
▁Sultanate	-9429
▁highlight	-9430
▁offspring	-9431
▁qualities	-9432
▁corruption	-9433
▁domination	-9434
▁monumental	-9435
▁Scandinavia	-9436
▁neighboring	-9437
▁proposition	-9438
▁observational	-9439
ni	-9440
ét	-9441
Gen	-9442
inf	-9443
loo	-9444
mel	-9445
▁54	-9446
▁Kn	-9447
▁Ul	-9448
.[52	-9449
alia	-9450
arus	-9451
asts	-9452
enda	-9453
ioch	-9454
pers	-9455
uchy	-9456
▁Gas	-9457
▁Gib	-9458
▁Jur	-9459
▁Tus	-9460
▁Whe	-9461
▁bat	-9462
acles	-9463
elson	-9464
ester	-9465
eterm	-9466
ihood	-9467
imens	-9468
▁1000	-9469
▁1850	-9470
▁Barb	-9471
▁Chic	-9472
▁Desc	-9473
▁Sull	-9474
▁Wind	-9475
▁empt	-9476
▁exha	-9477
▁pled	-9478
.[213]	-9479
.[243]	-9480
alysis	-9481
anging	-9482
mathrm	-9483
▁2020,	-9484
▁craft	-9485
▁cryst	-9486
▁dimin	-9487
▁drove	-9488
▁glaci	-9489
▁heres	-9490
▁loans	-9491
▁shock	-9492
▁track	-9493
▁wheat	-9494
classic	-9495
landers	-9496
rinking	-9497
▁Androm	-9498
▁Having	-9499
▁Norweg	-9500
▁agency	-9501
▁arrive	-9502
▁colour	-9503
▁domain	-9504
▁intact	-9505
▁landsl	-9506
▁leaves	-9507
▁strand	-9508
▁termin	-9509
▁Bolivia	-9510
▁compass	-9511
▁crowned	-9512
▁equator	-9513
▁motions	-9514
▁savanna	-9515
▁sectors	-9516
▁supreme	-9517
▁Muhammad	-9518
▁ceremony	-9519
▁contents	-9520
▁failures	-9521
▁infrared	-9522
▁machines	-9523
▁reconcil	-9524
▁socially	-9525
▁Political	-9526
▁artefacts	-9527
▁extension	-9528
▁feudalism	-9529
▁negotiate	-9530
▁persuaded	-9531
▁scholarly	-9532
forestation	-9533
▁Archbishop	-9534
▁confidence	-9535
▁conquering	-9536
▁contradict	-9537
▁membership	-9538
▁mercenaries	-9539
▁regulations	-9540
▁transmitted	-9541
▁Conservative	-9542
▁reforestation	-9543
7)	-9544
CLC	-9545
Col	-9546
anj	-9547
cho	-9548
hew	-9549
lad	-9550
ori	-9551
▁42	-9552
▁Ol	-9553
."[2	-9554
aker	-9555
athy	-9556
mann	-9557
rors	-9558
vene	-9559
▁188	-9560
▁40%	-9561
▁Bat	-9562
▁Hor	-9563
▁dow	-9564
▁enz	-9565
about	-9566
acerb	-9567
aints	-9568
apped	-9569
child	-9570
icate	-9571
world	-9572
▁1964	-9573
▁Crit	-9574
▁Soon	-9575
▁Zhou	-9576
▁poet	-9577
▁pope	-9578
▁save	-9579
▁turb	-9580
.[219]	-9581
.[231]	-9582
.[234]	-9583
50,000	-9584
andson	-9585
commun	-9586
ieties	-9587
▁2018,	-9588
▁Along	-9589
▁agent	-9590
▁arche	-9591
▁chlor	-9592
▁drast	-9593
▁escal	-9594
▁scope	-9595
▁skill	-9596
ointing	-9597
▁40,000	-9598
▁Labour	-9599
▁Medici	-9600
▁Qumran	-9601
▁batter	-9602
▁explos	-9603
▁ideals	-9604
▁random	-9605
▁reluct	-9606
▁repair	-9607
▁spirit	-9608
▁Antioch	-9609
▁annihil	-9610
▁charact	-9611
▁defeats	-9612
▁dialect	-9613
▁evident	-9614
▁exacerb	-9615
▁expense	-9616
▁marking	-9617
▁running	-9618
▁shallow	-9619
▁Division	-9620
▁Standard	-9621
▁Tropical	-9622
▁Waterloo	-9623
▁actively	-9624
▁altitude	-9625
▁collabor	-9626
▁expelled	-9627
▁formerly	-9628
▁inherent	-9629
▁printing	-9630
▁reflects	-9631
▁resolved	-9632
▁suitable	-9633
▁visitors	-9634
▁Athenians	-9635
▁belonging	-9636
▁cognition	-9637
▁Eventually	-9638
▁Queensland	-9639
▁businesses	-9640
▁manufacture	-9641
pa	-9642
zu	-9643
des	-9644
▁55	-9645
▁pa	-9646
▁sq	-9647
ESCO	-9648
][31	-9649
arma	-9650
aven	-9651
bula	-9652
eric	-9653
iens	-9654
ripp	-9655
▁Any	-9656
▁Hug	-9657
▁Lit	-9658
▁Mur	-9659
▁Neg	-9660
anthe	-9661
isans	-9662
occup	-9663
pania	-9664
scill	-9665
▁2007	-9666
▁Cave	-9667
▁Dist	-9668
▁Flor	-9669
▁Mill	-9670
▁Penn	-9671
▁Prop	-9672
▁Prov	-9673
▁Time	-9674
▁doll	-9675
▁fate	-9676
▁pray	-9677
▁prol	-9678
▁seal	-9679
▁tell	-9680
.[218]	-9681
.[227]	-9682
fields	-9683
letion	-9684
▁Canal	-9685
▁Coast	-9686
▁arbit	-9687
▁entit	-9688
▁figur	-9689
▁reass	-9690
▁risks	-9691
connect	-9692
emetery	-9693
▁Alfred	-9694
▁Copern	-9695
▁Franks	-9696
▁Hebrew	-9697
▁Sahara	-9698
▁armour	-9699
▁blocks	-9700
▁dispos	-9701
▁expert	-9702
▁extens	-9703
▁neural	-9704
▁shapes	-9705
personal	-9706
▁Castile	-9707
▁Library	-9708
▁Science	-9709
▁Spartan	-9710
▁condens	-9711
▁extends	-9712
▁imports	-9713
▁onwards	-9714
▁reverse	-9715
▁strands	-9716
▁willing	-9717
▁Columbia	-9718
▁annivers	-9719
▁deployed	-9720
▁equipped	-9721
▁friction	-9722
▁genetics	-9723
▁genocide	-9724
▁historic	-9725
▁senators	-9726
▁affecting	-9727
▁attacking	-9728
▁committee	-9729
▁dismissed	-9730
▁northeast	-9731
▁requiring	-9732
▁secretary	-9733
▁seriously	-9734
▁Napoleonic	-9735
▁aggression	-9736
▁beneficial	-9737
▁characters	-9738
▁compromise	-9739
▁culminated	-9740
▁privileges	-9741
▁Mesoamerica	-9742
▁perspectives	-9743
▁quantitative	-9744
▁characterised	-9745
Is	-9746
Sax	-9747
pie	-9748
▁Ky	-9749
▁Pu	-9750
▁cm	-9751
ovak	-9752
type	-9753
▁175	-9754
▁80%	-9755
▁Jos	-9756
▁Kur	-9757
▁Out	-9758
▁Rec	-9759
▁Ren	-9760
▁lik	-9761
▁mes	-9762
▁riv	-9763
achev	-9764
achus	-9765
agues	-9766
anged	-9767
anian	-9768
olics	-9769
otype	-9770
▁2011	-9771
▁2016	-9772
▁Bagh	-9773
▁Fund	-9774
▁Hast	-9775
▁Hill	-9776
▁Horn	-9777
▁Manu	-9778
▁Mugh	-9779
▁Pale	-9780
▁ampl	-9781
▁elli	-9782
▁ends	-9783
▁herb	-9784
▁lawy	-9785
▁mart	-9786
▁subt	-9787
.[199]	-9788
.[201]	-9789
.[223]	-9790
cyclop	-9791
itated	-9792
orship	-9793
thirds	-9794
▁3,000	-9795
▁Assur	-9796
▁Cairo	-9797
▁Grant	-9798
▁Greco	-9799
▁Hamil	-9800
▁Nubia	-9801
▁Tibet	-9802
▁brown	-9803
▁helps	-9804
▁optim	-9805
▁seize	-9806
▁songs	-9807
enhower	-9808
tenance	-9809
▁Alaska	-9810
▁carved	-9811
▁decree	-9812
▁invent	-9813
▁papacy	-9814
▁plasma	-9815
arations	-9816
roscopic	-9817
▁Foreign	-9818
▁Rosetta	-9819
▁classic	-9820
▁confisc	-9821
▁derives	-9822
▁invited	-9823
▁kinship	-9824
▁nominal	-9825
▁streets	-9826
▁targets	-9827
▁Bulgaria	-9828
▁Hispania	-9829
▁Scottish	-9830
▁abundant	-9831
▁agencies	-9832
▁audience	-9833
▁channels	-9834
▁covering	-9835
▁entrance	-9836
▁infinite	-9837
▁marginal	-9838
▁outcomes	-9839
▁polities	-9840
▁regulate	-9841
▁treasury	-9842
▁Descartes	-9843
▁Greenland	-9844
▁receiving	-9845
▁residence	-9846
▁sacrifice	-9847
▁Eisenhower	-9848
▁candidates	-9849
▁comprehens	-9850
▁convection	-9851
▁coronation	-9852
▁culturally	-9853
▁engagement	-9854
▁kilometers	-9855
disciplinary	-9856
▁Agriculture	-9857
▁evaporation	-9858
▁exclusively	-9859
▁friendships	-9860
▁associations	-9861
▁ethnographic	-9862
▁organisation	-9863
▁sociological	-9864
31	-9865
CD	-9866
xi	-9867
100	-9868
rec	-9869
ulg	-9870
zes	-9871
sell	-9872
ymes	-9873
▁Che	-9874
▁Hay	-9875
▁mil	-9876
▁voc	-9877
.[4]:	-9878
amily	-9879
gebra	-9880
inois	-9881
ourag	-9882
pling	-9883
▁Call	-9884
▁Juan	-9885
▁Soph	-9886
▁fran	-9887
▁hill	-9888
▁obst	-9889
.[222]	-9890
.[224]	-9891
▁Journ	-9892
▁Smith	-9893
▁bones	-9894
▁divor	-9895
▁eject	-9896
▁embra	-9897
▁morph	-9898
▁plebe	-9899
▁riots	-9900
▁serfs	-9901
▁veter	-9902
gathere	-9903
rection	-9904
▁Castro	-9905
▁Iberia	-9906
▁Morocc	-9907
▁Nelson	-9908
▁Tasman	-9909
▁advice	-9910
▁anyone	-9911
▁choose	-9912
▁credit	-9913
▁lesser	-9914
▁resist	-9915
▁shifts	-9916
▁sports	-9917
▁stayed	-9918
▁Baldwin	-9919
▁Beijing	-9920
▁Theodos	-9921
▁deposed	-9922
▁experts	-9923
▁insects	-9924
▁prehist	-9925
▁reduces	-9926
▁revolts	-9927
▁strikes	-9928
istically	-9929
ropolitan	-9930
▁asserted	-9931
▁belonged	-9932
▁confront	-9933
▁excluded	-9934
▁informal	-9935
▁monopoly	-9936
▁offering	-9937
▁surfaces	-9938
▁versions	-9939
▁Sumerians	-9940
▁accounted	-9941
▁observers	-9942
▁survivors	-9943
▁sustained	-9944
▁twentieth	-9945
▁attraction	-9946
▁capitalism	-9947
▁ceremonial	-9948
▁constantly	-9949
▁devastated	-9950
▁elliptical	-9951
▁hemisphere	-9952
▁hypotheses	-9953
▁prevailing	-9954
▁rebellions	-9955
▁university	-9956
▁demonstrate	-9957
▁discussions	-9958
▁expressions	-9959
▁replacement	-9960
▁administered	-9961
▁Environmental	-9962
▁physiological	-9963
▁substantially	-9964
-2	-9965
32	-9966
?"	-9967
AO	-9968
AR	-9969
DR	-9970
DNA	-9971
ips	-9972
ulu	-9973
▁48	-9974
▁67	-9975
▁Bh	-9976
iday	-9977
ipel	-9978
lerk	-9979
ocol	-9980
▁148	-9981
▁Sav	-9982
▁Sue	-9983
▁Typ	-9984
▁Zhu	-9985
▁bea	-9986
▁mum	-9987
civil	-9988
ennes	-9989
▁2012	-9990
▁Axis	-9991
▁Bell	-9992
▁SCLC	-9993
▁Upon	-9994
▁What	-9995
▁clay	-9996
▁lord	-9997
▁noun	-9998
▁reun	-9999
elfare	-10000
rowave	-10001
ulates	-10002
▁1991,	-10003
▁Abbas	-10004
▁Ceres	-10005
▁Chief	-10006
▁Klerk	-10007
▁Tiber	-10008
▁aided	-10009
▁beach	-10010
▁fungi	-10011
▁pilgr	-10012
▁solst	-10013
▁stock	-10014
▁trace	-10015
ourable	-10016
▁Daniel	-10017
▁Samuel	-10018
▁Serbia	-10019
▁appeal	-10020
▁assets	-10021
▁barbar	-10022
▁barons	-10023
▁binary	-10024
▁evapor	-10025
▁exiled	-10026
▁expend	-10027
▁fluctu	-10028
▁honour	-10029
▁insuff	-10030
▁testim	-10031
▁titles	-10032
▁verbal	-10033
▁Baghdad	-10034
▁Finland	-10035
▁Florida	-10036
▁Normans	-10037
▁Slavery	-10038
▁funeral	-10039
▁heights	-10040
▁library	-10041
▁minimum	-10042
▁obvious	-10043
▁palaces	-10044
▁prepare	-10045
icultural	-10046
operation	-10047
▁adjacent	-10048
▁approval	-10049
▁assisted	-10050
▁consumer	-10051
▁drainage	-10052
▁everyone	-10053
▁featured	-10054
▁hierarch	-10055
▁incident	-10056
▁migrants	-10057
▁portions	-10058
▁trillion	-10059
▁depicting	-10060
▁distribut	-10061
▁emphasize	-10062
▁isolation	-10063
▁occasions	-10064
▁proceeded	-10065
▁remainder	-10066
▁assumption	-10067
▁laboratory	-10068
▁objectives	-10069
▁anniversary	-10070
▁arrangement	-10071
▁extensively	-10072
▁maintenance	-10073
▁collectively	-10074
▁consolidated	-10075
▁explanations	-10076
'.	-10077
ID	-10078
MS	-10079
di	-10080
po	-10081
ACP	-10082
Din	-10083
pus	-10084
rot	-10085
sub	-10086
–16	-10087
▁87	-10088
▁Ae	-10089
aeus	-10090
alus	-10091
atha	-10092
etts	-10093
oven	-10094
unch	-10095
▁122	-10096
▁140	-10097
▁Bav	-10098
▁Kie	-10099
▁Tea	-10100
▁Yet	-10101
▁abd	-10102
▁flo	-10103
▁por	-10104
▁tor	-10105
▁wel	-10106
Earth	-10107
anger	-10108
asive	-10109
eless	-10110
imity	-10111
undra	-10112
unuch	-10113
▁2006	-10114
▁Five	-10115
▁Mult	-10116
▁Oral	-10117
▁bulk	-10118
▁dece	-10119
▁flux	-10120
▁goes	-10121
▁nick	-10122
▁reds	-10123
▁resc	-10124
▁synt	-10125
▁unst	-10126
.[212]	-10127
.[237]	-10128
.[244]	-10129
aneous	-10130
ourage	-10131
ulsion	-10132
▁Colle	-10133
▁Edwin	-10134
▁Isaac	-10135
▁Loyal	-10136
▁Roger	-10137
▁Super	-10138
▁Tokug	-10139
▁absor	-10140
▁alive	-10141
▁lords	-10142
▁overs	-10143
▁pagan	-10144
▁posts	-10145
▁sheet	-10146
▁surge	-10147
ardinal	-10148
roughts	-10149
▁Office	-10150
▁Yellow	-10151
▁adults	-10152
▁chosen	-10153
▁deeper	-10154
▁dispat	-10155
▁hunter	-10156
▁quarks	-10157
▁reward	-10158
▁speeds	-10159
▁suprem	-10160
▁volunt	-10161
▁warmer	-10162
▁weapon	-10163
cessions	-10164
▁Semitic	-10165
▁Siberia	-10166
▁combine	-10167
▁inquiry	-10168
▁joining	-10169
▁missile	-10170
▁operate	-10171
▁payment	-10172
▁samples	-10173
▁textile	-10174
▁torture	-10175
achusetts	-10176
▁Flanders	-10177
▁Hastings	-10178
▁Heritage	-10179
▁Mongolia	-10180
▁criminal	-10181
▁enhanced	-10182
▁hospital	-10183
▁invading	-10184
▁pleasure	-10185
▁refugees	-10186
▁securing	-10187
▁surprise	-10188
▁teachers	-10189
ustainable	-10190
▁Catholics	-10191
▁decorated	-10192
▁disintegr	-10193
▁displaced	-10194
▁exclusive	-10195
▁identical	-10196
▁producers	-10197
▁secession	-10198
▁Byzantines	-10199
▁constitute	-10200
▁decreasing	-10201
▁luminosity	-10202
▁questioned	-10203
▁concessions	-10204
▁politicians	-10205
▁Scandinavian	-10206
▁expectations	-10207
▁overwhelming	-10208
▁Carthaginians	-10209
▁Massachusetts	-10210
▁organisations	-10211
Ar	-10212
bre	-10213
ker	-10214
nic	-10215
yrr	-10216
flow	-10217
free	-10218
held	-10219
ucky	-10220
▁Aks	-10221
▁Aut	-10222
▁Hyd	-10223
▁Syd	-10224
▁Tit	-10225
▁blu	-10226
▁cer	-10227
▁fix	-10228
▁obl	-10229
▁une	-10230
agger	-10231
black	-10232
icero	-10233
onius	-10234
ouses	-10235
rises	-10236
thood	-10237
trans	-10238
▁1918	-10239
▁1965	-10240
▁2008	-10241
▁2018	-10242
▁Cass	-10243
▁Isab	-10244
▁Lore	-10245
▁Then	-10246
▁Town	-10247
▁Wood	-10248
▁Yang	-10249
▁bear	-10250
▁cave	-10251
▁ions	-10252
▁smel	-10253
▁soul	-10254
▁stem	-10255
▁tiny	-10256
▁wool	-10257
.[238]	-10258
.[240]	-10259
.[262]	-10260
asters	-10261
ordial	-10262
▁4,000	-10263
▁Apart	-10264
▁Found	-10265
▁Kings	-10266
▁arise	-10267
▁clock	-10268
▁films	-10269
▁forth	-10270
massive	-10271
▁Aragon	-10272
▁Hispan	-10273
▁UNESCO	-10274
▁basins	-10275
▁ceased	-10276
▁dances	-10277
fficient	-10278
idential	-10279
▁Algeria	-10280
▁archers	-10281
▁bridges	-10282
▁cabinet	-10283
▁coinage	-10284
▁estates	-10285
▁exhibit	-10286
▁grouped	-10287
▁hostile	-10288
▁knowing	-10289
▁mammals	-10290
▁morally	-10291
▁optical	-10292
▁promise	-10293
▁renamed	-10294
▁shorter	-10295
▁teacher	-10296
ationally	-10297
▁Spartans	-10298
▁confined	-10299
▁dynastic	-10300
▁entitled	-10301
▁equation	-10302
▁habitats	-10303
▁hegemony	-10304
▁pyramids	-10305
▁resigned	-10306
▁Andromeda	-10307
▁Different	-10308
▁broadcast	-10309
▁chemicals	-10310
▁precisely	-10311
▁recording	-10312
▁subjected	-10313
▁suspected	-10314
▁accessible	-10315
▁brightness	-10316
▁formulated	-10317
▁hereditary	-10318
▁imprisoned	-10319
▁initiative	-10320
▁victorious	-10321
▁achievement	-10322
▁demographic	-10323
▁identifying	-10324
▁lithosphere	-10325
▁underground	-10326
▁universally	-10327
▁Contemporary	-10328
▁thunderstorm	-10329
▁fortifications	-10330
PA	-10331
4][	-10332
;[2	-10333
awn	-10334
kan	-10335
mus	-10336
yll	-10337
▁32	-10338
][33	-10339
body	-10340
idus	-10341
itiz	-10342
orde	-10343
oust	-10344
▁Dec	-10345
▁Dra	-10346
▁Tan	-10347
▁tun	-10348
eries	-10349
gener	-10350
guard	-10351
uster	-10352
uting	-10353
venth	-10354
▁1820	-10355
▁1860	-10356
▁Afri	-10357
▁Dark	-10358
▁PAVN	-10359
▁Pact	-10360
▁Tyre	-10361
▁dual	-10362
▁fier	-10363
▁gent	-10364
▁rhet	-10365
▁toll	-10366
▁usur	-10367
▁vide	-10368
.[228]	-10369
charge	-10370
ocated	-10371
ogenic	-10372
▁Milan	-10373
▁Rhine	-10374
▁Siege	-10375
▁Sudan	-10376
▁Tunis	-10377
▁fluid	-10378
▁heads	-10379
▁heter	-10380
▁males	-10381
▁naked	-10382
▁prose	-10383
▁races	-10384
▁redsh	-10385
▁valid	-10386
▁Cicero	-10387
▁Energy	-10388
▁Mexica	-10389
▁Sydney	-10390
▁chains	-10391
▁dwarfs	-10392
▁exempl	-10393
▁funded	-10394
▁looked	-10395
▁runoff	-10396
▁satisf	-10397
▁steppe	-10398
▁trials	-10399
building	-10400
raviolet	-10401
▁consent	-10402
▁cutting	-10403
▁install	-10404
▁placing	-10405
▁playing	-10406
▁skilled	-10407
▁streams	-10408
▁undergo	-10409
▁wearing	-10410
▁Carolina	-10411
▁Hinduism	-10412
▁Tokugawa	-10413
▁barriers	-10414
▁discrete	-10415
▁encourag	-10416
▁favoured	-10417
▁insisted	-10418
▁landings	-10419
▁landmass	-10420
▁literacy	-10421
▁prisoner	-10422
▁singular	-10423
▁thinkers	-10424
▁westward	-10425
especially	-10426
industrial	-10427
▁certainly	-10428
▁decreases	-10429
▁limestone	-10430
▁observing	-10431
▁persisted	-10432
▁physician	-10433
▁requested	-10434
▁sentences	-10435
▁absorption	-10436
▁accordance	-10437
▁campaigned	-10438
▁decisively	-10439
▁elementary	-10440
▁governance	-10441
▁permission	-10442
▁possession	-10443
▁productive	-10444
▁collections	-10445
▁inspiration	-10446
▁temporarily	-10447
▁Aristotelian	-10448
▁northwestern	-10449
36	-10450
Af	-10451
US	-10452
ém	-10453
én	-10454
300	-10455
[15	-10456
jab	-10457
pox	-10458
sey	-10459
▁"[	-10460
▁36	-10461
▁od	-10462
,[21	-10463
ando	-10464
aste	-10465
atis	-10466
iche	-10467
oard	-10468
went	-10469
▁Ele	-10470
▁Gar	-10471
▁Orl	-10472
▁Qin	-10473
▁Sol	-10474
▁Vis	-10475
▁alc	-10476
▁fat	-10477
▁jun	-10478
▁mph	-10479
annel	-10480
erred	-10481
order	-10482
ridge	-10483
▁Cort	-10484
▁Euro	-10485
▁Mess	-10486
▁Plat	-10487
▁Vest	-10488
▁game	-10489
▁lens	-10490
▁puls	-10491
.[236]	-10492
iating	-10493
iguous	-10494
▁Arabs	-10495
▁Bantu	-10496
▁Gaius	-10497
▁Libya	-10498
▁boost	-10499
▁metab	-10500
▁wheel	-10501
ressive	-10502
▁Lucius	-10503
▁abroad	-10504
▁canals	-10505
▁danger	-10506
▁estate	-10507
▁heresy	-10508
▁patric	-10509
ffective	-10510
hemistry	-10511
ordinary	-10512
uneiform	-10513
▁Belarus	-10514
▁Crassus	-10515
▁Princip	-10516
▁colours	-10517
▁conting	-10518
▁favored	-10519
▁grazing	-10520
▁insight	-10521
▁missing	-10522
▁mixture	-10523
▁tourism	-10524
▁voyages	-10525
ographies	-10526
▁alphabet	-10527
▁attitude	-10528
▁convicts	-10529
▁depended	-10530
▁molecule	-10531
▁vehicles	-10532
▁whatever	-10533
▁Initially	-10534
▁coastline	-10535
▁contested	-10536
▁discourse	-10537
▁disorders	-10538
▁improving	-10539
▁recruited	-10540
▁underwent	-10541
▁accounting	-10542
▁assessment	-10543
▁emphasizes	-10544
▁metallurgy	-10545
▁profession	-10546
▁sculptures	-10547
▁statements	-10548
▁successive	-10549
▁terracotta	-10550
▁constitutes	-10551
▁contributes	-10552
▁disappeared	-10553
▁dissolution	-10554
▁plantations	-10555
▁superiority	-10556
▁accomplished	-10557
MO	-10558
gs	-10559
asi	-10560
igm	-10561
nut	-10562
yan	-10563
▁65	-10564
▁Lo	-10565
."[7	-10566
9][2	-10567
amic	-10568
bles	-10569
hett	-10570
irth	-10571
ista	-10572
izer	-10573
made	-10574
ophy	-10575
real	-10576
rism	-10577
uits	-10578
ules	-10579
▁(1,	-10580
▁130	-10581
▁Abd	-10582
▁Bed	-10583
▁Bor	-10584
▁Cir	-10585
▁Lep	-10586
▁Ord	-10587
▁Uru	-10588
▁cyt	-10589
▁sod	-10590
][11]	-10591
][14]	-10592
elles	-10593
house	-10594
ocked	-10595
rimin	-10596
rived	-10597
roads	-10598
ybrid	-10599
▁1929	-10600
▁1963	-10601
▁2023	-10602
▁Benj	-10603
▁Bloc	-10604
▁Gust	-10605
▁Kong	-10606
▁Mero	-10607
▁Wilk	-10608
▁Writ	-10609
▁degr	-10610
▁encl	-10611
▁epit	-10612
▁flex	-10613
▁hipp	-10614
▁scar	-10615
▁summ	-10616
▁trou	-10617
.[235]	-10618
rowing	-10619
urrent	-10620
▁1964,	-10621
▁2007,	-10622
▁Aksum	-10623
▁Chang	-10624
▁ahead	-10625
▁alien	-10626
▁boats	-10627
▁flank	-10628
▁flash	-10629
▁foods	-10630
▁fract	-10631
▁grant	-10632
▁loose	-10633
▁pairs	-10634
▁prove	-10635
▁swept	-10636
faction	-10637
ignific	-10638
tically	-10639
▁Carbon	-10640
▁Punjab	-10641
▁Survey	-10642
▁Walter	-10643
▁adding	-10644
▁affair	-10645
▁bought	-10646
▁cannon	-10647
▁curric	-10648
▁fellow	-10649
▁incent	-10650
▁interf	-10651
▁permit	-10652
▁poorly	-10653
▁refere	-10654
▁suspic	-10655
▁Arabian	-10656
▁Article	-10657
▁Bernard	-10658
▁College	-10659
▁Current	-10660
▁Special	-10661
▁algebra	-10662
▁declare	-10663
▁devoted	-10664
▁enacted	-10665
▁enhance	-10666
▁finance	-10667
▁kinetic	-10668
▁nearest	-10669
▁Illinois	-10670
▁eventual	-10671
▁examines	-10672
▁festival	-10673
▁fraction	-10674
▁globally	-10675
▁organize	-10676
▁removing	-10677
▁steadily	-10678
▁transmit	-10679
▁treatise	-10680
▁weakness	-10681
▁Macedonia	-10682
▁biosphere	-10683
▁declining	-10684
▁depletion	-10685
▁elephants	-10686
▁examining	-10687
▁proposals	-10688
▁sediments	-10689
▁stationed	-10690
▁varieties	-10691
▁accurately	-10692
▁autonomous	-10693
▁extraction	-10694
▁horizontal	-10695
▁performing	-10696
▁photograph	-10697
▁unexpected	-10698
▁Evangelical	-10699
▁complicated	-10700
▁declaration	-10701
▁inscription	-10702
▁uncertainty	-10703
▁Consequently	-10704
▁interference	-10705
▁neighbouring	-10706
▁nevertheless	-10707
▁transcription	-10708
▁demonstrations	-10709
4%	-10710
Pa	-10711
ju	-10712
▁}	-10713
").	-10714
:00	-10715
And	-10716
New	-10717
[11	-10718
oil	-10719
phs	-10720
rox	-10721
ugg	-10722
▁6,	-10723
▁77	-10724
▁Ve	-10725
▁hy	-10726
bran	-10727
ello	-10728
fess	-10729
hend	-10730
iano	-10731
olph	-10732
pton	-10733
▁119	-10734
▁147	-10735
▁162	-10736
▁Aff	-10737
▁Ham	-10738
▁Lew	-10739
▁Lis	-10740
▁Moh	-10741
▁civ	-10742
▁dan	-10743
▁lev	-10744
▁seg	-10745
Great	-10746
aters	-10747
educt	-10748
eping	-10749
ogram	-10750
vised	-10751
▁1200	-10752
▁2005	-10753
▁Coal	-10754
▁Dioc	-10755
▁Food	-10756
▁Giov	-10757
▁Gorb	-10758
▁Mend	-10759
▁Minh	-10760
▁Rain	-10761
▁amid	-10762
▁atom	-10763
▁clin	-10764
▁draf	-10765
▁hall	-10766
▁pert	-10767
▁subd	-10768
▁tiss	-10769
▁wage	-10770
▁worn	-10771
.[250]	-10772
change	-10773
orting	-10774
rition	-10775
▁1917,	-10776
▁1942,	-10777
▁1968,	-10778
▁Damas	-10779
▁Delhi	-10780
▁Diego	-10781
▁Every	-10782
▁Hence	-10783
▁Prior	-10784
▁coord	-10785
▁empty	-10786
▁navig	-10787
▁ridge	-10788
▁touch	-10789
▁worst	-10790
endment	-10791
▁Alaric	-10792
▁Castle	-10793
▁Mathem	-10794
▁beauty	-10795
▁client	-10796
▁couple	-10797
▁eccles	-10798
▁eunuch	-10799
▁static	-10800
▁sulfur	-10801
▁therap	-10802
▁transc	-10803
▁versus	-10804
▁voters	-10805
▁Program	-10806
▁auroral	-10807
▁corrupt	-10808
▁delayed	-10809
▁digital	-10810
▁induced	-10811
▁looking	-10812
▁nucleot	-10813
▁plunder	-10814
▁sailors	-10815
▁tension	-10816
▁Campaign	-10817
▁Venetian	-10818
▁analyzed	-10819
▁grandson	-10820
▁judgment	-10821
▁ratified	-10822
▁realized	-10823
▁smallest	-10824
▁striking	-10825
▁ancestral	-10826
▁exercised	-10827
▁preceding	-10828
▁scientist	-10829
▁suspended	-10830
▁thermodyn	-10831
▁acceptance	-10832
▁authorized	-10833
▁economists	-10834
▁explicitly	-10835
▁mainstream	-10836
▁protective	-10837
▁Republicans	-10838
▁commodities	-10839
▁examination	-10840
▁magistrates	-10841
▁Civilisation	-10842
▁strengthened	-10843
▁communications	-10844
▁mathematicians	-10845
1][	-10846
8),	-10847
arr	-10848
cal	-10849
com	-10850
how	-10851
ieu	-10852
mes	-10853
was	-10854
▁Du	-10855
,[23	-10856
."[8	-10857
][9]	-10858
gean	-10859
imid	-10860
inox	-10861
iper	-10862
kins	-10863
room	-10864
▁166	-10865
▁169	-10866
▁CIA	-10867
▁Equ	-10868
▁Jun	-10869
▁Tat	-10870
▁Tig	-10871
▁Tru	-10872
▁Van	-10873
▁mud	-10874
▁rav	-10875
Saxon	-10876
iders	-10877
nings	-10878
omery	-10879
ommun	-10880
onald	-10881
▁1956	-10882
▁2009	-10883
▁Bast	-10884
▁Bour	-10885
▁icon	-10886
▁libr	-10887
▁stro	-10888
.[239]	-10889
.[241]	-10890
.[247]	-10891
arians	-10892
ptions	-10893
rained	-10894
▁2015,	-10895
▁Mamlu	-10896
▁Petro	-10897
▁alarm	-10898
▁fired	-10899
▁poles	-10900
▁rites	-10901
▁steep	-10902
▁Aegean	-10903
▁Canaan	-10904
▁Father	-10905
▁Little	-10906
▁Mughal	-10907
▁Report	-10908
▁Slavic	-10909
▁disapp	-10910
▁facing	-10911
▁luxury	-10912
▁notice	-10913
▁occupy	-10914
▁onward	-10915
▁plains	-10916
▁really	-10917
▁Armenia	-10918
▁Morocco	-10919
▁Scrolls	-10920
▁amongst	-10921
▁auroras	-10922
▁boycott	-10923
▁compact	-10924
▁equinox	-10925
▁erected	-10926
▁evening	-10927
▁factory	-10928
▁ignored	-10929
▁illegit	-10930
▁membran	-10931
▁raiding	-10932
▁relates	-10933
▁revival	-10934
▁tablets	-10935
▁vehicle	-10936
▁Benjamin	-10937
▁Caroling	-10938
▁Crusades	-10939
▁Newfound	-10940
▁accuracy	-10941
▁comprise	-10942
▁meetings	-10943
▁monetary	-10944
▁Cathedral	-10945
▁Crusaders	-10946
▁Gorbachev	-10947
▁Norwegian	-10948
▁correctly	-10949
▁cuneiform	-10950
▁dimension	-10951
▁eliminate	-10952
▁encounter	-10953
▁literally	-10954
▁microwave	-10955
▁prevalent	-10956
▁submarine	-10957
▁collisions	-10958
▁cultivated	-10959
▁excavation	-10960
▁occurrence	-10961
▁speculated	-10962
▁archaeology	-10963
▁assumptions	-10964
▁bureaucracy	-10965
▁groundwater	-10966
▁monasteries	-10967
▁insufficient	-10968
▁sociologists	-10969
▁effectiveness	-10970
▁parliamentary	-10971
oo	-10972
qa	-10973
4),	-10974
ila	-10975
–13	-10976
▁5,	-10977
▁Ni	-10978
▁XI	-10979
▁ca	-10980
,[20	-10981
3][6	-10982
adin	-10983
aret	-10984
esty	-10985
iner	-10986
phis	-10987
reek	-10988
uter	-10989
wind	-10990
▁Bos	-10991
▁Dev	-10992
▁Ric	-10993
▁Sil	-10994
▁rum	-10995
][16]	-10996
][25]	-10997
abama	-10998
board	-10999
gedei	-11000
heads	-11001
ipher	-11002
oding	-11003
ounce	-11004
ricks	-11005
white	-11006
▁2024	-11007
▁Chap	-11008
▁Fern	-11009
▁Hall	-11010
▁Jane	-11011
▁Life	-11012
▁Mans	-11013
▁epic	-11014
▁irre	-11015
▁isot	-11016
▁mode	-11017
▁pale	-11018
▁pill	-11019
▁thor	-11020
enburg	-11021
▁2011,	-11022
▁Forum	-11023
▁Geoff	-11024
▁Honor	-11025
▁Music	-11026
▁Relig	-11027
▁Shang	-11028
▁cheap	-11029
▁disse	-11030
▁gramm	-11031
▁inert	-11032
▁irreg	-11033
▁relie	-11034
▁tight	-11035
▁uncle	-11036
Western	-11037
entally	-11038
herical	-11039
onymous	-11040
ructive	-11041
▁Thebes	-11042
▁accret	-11043
▁grains	-11044
▁marble	-11045
▁namely	-11046
▁naming	-11047
▁plural	-11048
▁shadow	-11049
▁slowed	-11050
▁themes	-11051
▁writer	-11052
ilateral	-11053
ordinate	-11054
pedition	-11055
▁Alabama	-11056
▁anatomy	-11057
▁binding	-11058
▁bombing	-11059
▁centred	-11060
▁faction	-11061
▁fertile	-11062
▁protons	-11063
▁readily	-11064
▁virtues	-11065
▁whereby	-11066
▁winning	-11067
naissance	-11068
stitution	-11069
▁Evidence	-11070
▁Giovanni	-11071
▁enforced	-11072
▁monarchs	-11073
▁rainbows	-11074
▁recalled	-11075
▁resisted	-11076
▁romantic	-11077
▁suffrage	-11078
▁unstable	-11079
▁Bolshevik	-11080
▁Countries	-11081
▁Friedrich	-11082
▁Represent	-11083
▁achieving	-11084
▁ambitions	-11085
▁daughters	-11086
▁denounced	-11087
▁dictators	-11088
▁emergency	-11089
▁governors	-11090
▁habitable	-11091
▁instances	-11092
▁judgments	-11093
▁ministers	-11094
▁patronage	-11095
▁populated	-11096
▁pressures	-11097
▁shortages	-11098
▁synthesis	-11099
▁unpopular	-11100
▁weakening	-11101
▁ceremonies	-11102
▁landowners	-11103
▁liberation	-11104
▁mitigation	-11105
▁percentage	-11106
▁preventing	-11107
▁prominence	-11108
▁remarkable	-11109
▁reportedly	-11110
▁separately	-11111
▁telescopes	-11112
▁Researchers	-11113
▁comparative	-11114
▁linguistics	-11115
▁probability	-11116
▁reparations	-11117
▁threatening	-11118
▁Biodiversity	-11119
▁Newfoundland	-11120
▁accumulation	-11121
▁predecessors	-11122
▁decolonization	-11123
▁reinforcements	-11124
.7	-11125
Ne	-11126
hr	-11127
ía	-11128
30,	-11129
9][	-11130
eav	-11131
emn	-11132
had	-11133
oba	-11134
two	-11135
via	-11136
–18	-11137
▁79	-11138
▁Fu	-11139
.[53	-11140
.[55	-11141
5][3	-11142
][3]	-11143
alan	-11144
ante	-11145
iary	-11146
icho	-11147
ifts	-11148
kind	-11149
oeuv	-11150
only	-11151
pres	-11152
sylv	-11153
urai	-11154
▁124	-11155
▁135	-11156
▁Adv	-11157
▁Bru	-11158
▁Cro	-11159
▁Eld	-11160
▁Fat	-11161
▁Had	-11162
▁Luc	-11163
▁McC	-11164
▁Mot	-11165
▁Ped	-11166
▁nep	-11167
9][11	-11168
ammar	-11169
equal	-11170
group	-11171
month	-11172
ommod	-11173
rongh	-11174
shore	-11175
umped	-11176
▁1941	-11177
▁Expl	-11178
▁Trum	-11179
▁Year	-11180
▁clan	-11181
▁desp	-11182
▁drag	-11183
▁lake	-11184
▁rats	-11185
▁sale	-11186
.[211]	-11187
.[259]	-11188
aining	-11189
allied	-11190
attack	-11191
ingham	-11192
irable	-11193
ishops	-11194
▁Charl	-11195
▁Flood	-11196
▁Jesus	-11197
▁Syrac	-11198
▁cease	-11199
▁essay	-11200
▁ghett	-11201
▁girls	-11202
▁illum	-11203
▁pharm	-11204
avement	-11205
ellular	-11206
ipelago	-11207
ocation	-11208
working	-11209
▁Calvin	-11210
▁Direct	-11211
▁Singap	-11212
▁bitter	-11213
▁correl	-11214
▁dispar	-11215
▁explor	-11216
▁faults	-11217
▁genres	-11218
▁hazard	-11219
▁legion	-11220
▁thirty	-11221
▁tundra	-11222
▁unions	-11223
▁wished	-11224
sylvania	-11225
▁Chronic	-11226
▁Israeli	-11227
▁Marxist	-11228
▁Oceania	-11229
▁differs	-11230
▁picture	-11231
▁pointed	-11232
▁strongh	-11233
▁Eurasian	-11234
▁Parthian	-11235
▁Tiberius	-11236
▁accommod	-11237
▁anywhere	-11238
▁droughts	-11239
▁eastward	-11240
▁epidemic	-11241
▁purchase	-11242
▁spinning	-11243
▁targeted	-11244
▁tsunamis	-11245
▁Hungarian	-11246
▁ambitious	-11247
▁concludes	-11248
▁defending	-11249
▁disasters	-11250
▁exploited	-11251
▁purchased	-11252
▁replacing	-11253
▁sensitive	-11254
▁approached	-11255
▁connecting	-11256
▁conspiracy	-11257
▁instituted	-11258
▁minorities	-11259
▁physically	-11260
▁primordial	-11261
▁reflecting	-11262
▁reflection	-11263
▁considering	-11264
▁genetically	-11265
▁preparation	-11266
▁ultraviolet	-11267
▁intermediate	-11268
▁jurisdiction	-11269
▁biotechnology	-11270
):	-11271
iy	-11272
wu	-11273
–6	-11274
aga	-11275
iah	-11276
lla	-11277
non	-11278
ova	-11279
oyd	-11280
sis	-11281
▁38	-11282
▁69	-11283
▁iv	-11284
akra	-11285
elts	-11286
gers	-11287
hent	-11288
ixon	-11289
name	-11290
orer	-11291
pent	-11292
quer	-11293
took	-11294
▁106	-11295
▁174	-11296
▁Bac	-11297
▁Gra	-11298
▁Pep	-11299
▁Rap	-11300
▁Ser	-11301
▁meg	-11302
▁sap	-11303
▁tin	-11304
▁tox	-11305
][45]	-11306
icked	-11307
ighth	-11308
plete	-11309
▁1991	-11310
▁Alps	-11311
▁Lomb	-11312
▁Marg	-11313
▁Vand	-11314
▁Vesp	-11315
▁barb	-11316
▁buff	-11317
▁sick	-11318
▁vice	-11319
.[254]	-11320
Christ	-11321
advant	-11322
erting	-11323
imates	-11324
ogenes	-11325
▁1861,	-11326
▁1939,	-11327
▁6,000	-11328
▁Montg	-11329
▁Order	-11330
▁Pluto	-11331
▁cance	-11332
▁canon	-11333
▁chaos	-11334
▁happy	-11335
▁lists	-11336
▁lover	-11337
▁radar	-11338
▁seeks	-11339
▁tanks	-11340
clusive	-11341
▁Cambod	-11342
▁Gustav	-11343
▁Howard	-11344
▁Julian	-11345
▁Rebell	-11346
▁Tennes	-11347
▁asking	-11348
▁battal	-11349
▁colder	-11350
▁contam	-11351
▁embass	-11352
▁incons	-11353
▁mobile	-11354
▁oscill	-11355
▁resign	-11356
▁sacked	-11357
▁scenes	-11358
▁summar	-11359
▁upward	-11360
▁yields	-11361
▁Britann	-11362
▁Chicago	-11363
▁Memphis	-11364
▁Nahuatl	-11365
▁Shortly	-11366
▁brigade	-11367
▁cluster	-11368
▁crusade	-11369
▁locally	-11370
▁putting	-11371
▁reorgan	-11372
▁revived	-11373
▁schemes	-11374
▁scribes	-11375
▁spheres	-11376
▁surpass	-11377
▁volumes	-11378
▁welfare	-11379
▁Starting	-11380
▁homeland	-11381
▁payments	-11382
imensional	-11383
▁Caliphate	-11384
▁Louisiana	-11385
▁Religious	-11386
▁accretion	-11387
▁consumers	-11388
▁defenders	-11389
▁disadvant	-11390
▁elevation	-11391
▁fortified	-11392
▁gathering	-11393
▁intervene	-11394
▁mutations	-11395
▁occupying	-11396
▁professor	-11397
▁proximity	-11398
▁Expedition	-11399
▁Scientists	-11400
▁conception	-11401
▁destroying	-11402
▁intentions	-11403
▁nationwide	-11404
▁nonviolent	-11405
▁organizing	-11406
▁constituted	-11407
▁corresponds	-11408
▁perceptions	-11409
▁Pennsylvania	-11410
▁disturbances	-11411
▁governmental	-11412
▁supernatural	-11413
▁civilisations	-11414
59	-11415
ek	-11416
zs	-11417
80,	-11418
Jew	-11419
ook	-11420
▁5%	-11421
▁Op	-11422
▁eg	-11423
,[22	-11424
][44	-11425
aean	-11426
aith	-11427
bial	-11428
eroy	-11429
garh	-11430
iola	-11431
khan	-11432
ocar	-11433
ocke	-11434
rugu	-11435
▁Cod	-11436
▁Fri	-11437
▁Pur	-11438
▁Sas	-11439
▁See	-11440
▁Tal	-11441
▁Vic	-11442
▁fab	-11443
▁unw	-11444
][43]	-11445
atics	-11446
inger	-11447
later	-11448
ocamp	-11449
ratic	-11450
sized	-11451
▁1890	-11452
▁1914	-11453
▁1933	-11454
▁1939	-11455
▁3000	-11456
▁Angl	-11457
▁Pash	-11458
▁Rand	-11459
▁Sand	-11460
▁Stil	-11461
▁Work	-11462
▁easy	-11463
▁gone	-11464
▁merc	-11465
▁rout	-11466
.[255]	-11467
.[260]	-11468
.[261]	-11469
.[269]	-11470
.[271]	-11471
adelph	-11472
istice	-11473
ovakia	-11474
social	-11475
▁1914,	-11476
▁1990,	-11477
▁Champ	-11478
▁Dougl	-11479
▁Hawai	-11480
▁Pepin	-11481
▁brick	-11482
▁champ	-11483
▁dream	-11484
▁dying	-11485
▁guide	-11486
▁heirs	-11487
▁lying	-11488
▁magma	-11489
▁shoot	-11490
▁skele	-11491
edience	-11492
induced	-11493
▁Altern	-11494
▁Andrew	-11495
▁Peters	-11496
▁Saxony	-11497
▁absent	-11498
▁cement	-11499
▁crewed	-11500
▁desper	-11501
▁facial	-11502
▁facult	-11503
▁guards	-11504
▁impose	-11505
▁morale	-11506
▁pursue	-11507
▁rivals	-11508
▁sheets	-11509
▁tested	-11510
distance	-11511
entation	-11512
unicipal	-11513
▁Admiral	-11514
▁Atlanta	-11515
▁Belgian	-11516
▁Bohemia	-11517
▁Channel	-11518
▁Crimean	-11519
▁Kushite	-11520
▁devised	-11521
▁justify	-11522
▁minimal	-11523
▁neglect	-11524
▁outward	-11525
▁oversaw	-11526
▁shaping	-11527
ocentrism	-11528
▁Sardinia	-11529
▁accident	-11530
▁adequate	-11531
▁charters	-11532
▁consumed	-11533
▁enabling	-11534
▁mutation	-11535
▁remember	-11536
▁variable	-11537
▁Singapore	-11538
▁commoners	-11539
▁intensive	-11540
▁libraries	-11541
▁operating	-11542
▁pioneered	-11543
▁primitive	-11544
▁supremacy	-11545
▁testimony	-11546
▁Montgomery	-11547
▁Philadelph	-11548
▁attributes	-11549
▁criticised	-11550
▁exceptions	-11551
▁households	-11552
▁indirectly	-11553
▁volunteers	-11554
▁Carolingian	-11555
▁conclusions	-11556
▁disturbance	-11557
▁functioning	-11558
▁consistently	-11559
▁counterparts	-11560
▁instructions	-11561
▁psychologist	-11562
▁comprehensive	-11563
▁contemporaries	-11564
It	-11565
MB	-11566
ba	-11567
▁.	-11568
▁—	-11569
[21	-11570
gor	-11571
jug	-11572
nes	-11573
ocl	-11574
▁46	-11575
▁52	-11576
▁Cu	-11577
▁Py	-11578
][7]	-11579
acan	-11580
aver	-11581
chen	-11582
colm	-11583
ithm	-11584
kary	-11585
mont	-11586
ndum	-11587
oler	-11588
phin	-11589
ropy	-11590
▁(13	-11591
▁(16	-11592
▁105	-11593
▁114	-11594
▁2.5	-11595
▁25%	-11596
▁Ger	-11597
▁Liv	-11598
▁Maj	-11599
▁Nav	-11600
▁Odo	-11601
▁Pis	-11602
▁Yuc	-11603
▁gly	-11604
▁ibn	-11605
▁jew	-11606
▁lic	-11607
▁vig	-11608
][19]	-11609
][31]	-11610
agers	-11611
amaic	-11612
auses	-11613
ellan	-11614
inery	-11615
kheim	-11616
lords	-11617
ocene	-11618
ublai	-11619
▁1962	-11620
▁Anna	-11621
▁Fire	-11622
▁Stan	-11623
▁Suez	-11624
▁Turn	-11625
▁bath	-11626
▁boys	-11627
▁seed	-11628
▁trip	-11629
.[245]	-11630
.[251]	-11631
.[252]	-11632
.[258]	-11633
Columb	-11634
astics	-11635
helion	-11636
ologic	-11637
orical	-11638
▁1961,	-11639
▁1963,	-11640
▁2013,	-11641
▁2014,	-11642
▁Basil	-11643
▁Britt	-11644
▁Lewis	-11645
▁Scots	-11646
▁Sidon	-11647
▁Simon	-11648
▁Sulla	-11649
▁betra	-11650
▁debts	-11651
▁gamma	-11652
▁guerr	-11653
▁modes	-11654
▁penet	-11655
▁pregn	-11656
▁ready	-11657
▁rigid	-11658
▁trait	-11659
▁votes	-11660
▁worse	-11661
General	-11662
embered	-11663
▁15,000	-11664
▁Academ	-11665
▁Franco	-11666
▁Gothic	-11667
▁Turkic	-11668
▁Volcan	-11669
▁analog	-11670
▁bricks	-11671
▁county	-11672
▁device	-11673
▁dissip	-11674
▁enthus	-11675
▁fairly	-11676
▁fierce	-11677
▁nephew	-11678
▁steady	-11679
iastical	-11680
icularly	-11681
occupied	-11682
relation	-11683
▁Antonio	-11684
▁Aramaic	-11685
▁Douglas	-11686
▁Florent	-11687
▁Journal	-11688
▁Justice	-11689
▁Lithuan	-11690
▁Younger	-11691
▁bombard	-11692
▁circles	-11693
▁cleared	-11694
▁ensuing	-11695
▁helping	-11696
▁herself	-11697
▁logical	-11698
▁perturb	-11699
▁polymer	-11700
▁reserve	-11701
▁sparked	-11702
▁surveys	-11703
▁tariffs	-11704
▁warrior	-11705
▁weights	-11706
icellular	-11707
▁Geoffrey	-11708
▁Honorius	-11709
▁criteria	-11710
▁explorer	-11711
▁exported	-11712
▁overcome	-11713
▁preceded	-11714
▁revenues	-11715
▁smallpox	-11716
▁spanning	-11717
▁veterans	-11718
roximately	-11719
▁Testament	-11720
▁advancing	-11721
▁barbarian	-11722
▁carefully	-11723
▁computers	-11724
▁disappear	-11725
▁homelands	-11726
▁lifestyle	-11727
▁marriages	-11728
▁musicians	-11729
▁numerical	-11730
▁stretched	-11731
▁strongest	-11732
▁workforce	-11733
▁formations	-11734
▁legitimacy	-11735
▁repression	-11736
▁acquisition	-11737
▁legislative	-11738
▁Proclamation	-11739
▁aristocratic	-11740
▁investigated	-11741
▁supermassive	-11742
▁translations	-11743
▁Deforestation	-11744
AS	-11745
AU	-11746
ht	-11747
pc	-11748
zz	-11749
ür	-11750
Bab	-11751
ady	-11752
cio	-11753
har	-11754
him	-11755
isl	-11756
oco	-11757
oga	-11758
oku	-11759
sen	-11760
sky	-11761
tus	-11762
▁VC	-11763
9][7	-11764
][40	-11765
ails	-11766
ansk	-11767
coal	-11768
ente	-11769
enty	-11770
eous	-11771
icia	-11772
izar	-11773
odic	-11774
omal	-11775
post	-11776
ptic	-11777
rous	-11778
umps	-11779
▁900	-11780
▁Ayy	-11781
▁Exp	-11782
▁Ful	-11783
▁Gir	-11784
▁Guy	-11785
▁Lia	-11786
▁Rol	-11787
▁lot	-11788
▁mos	-11789
▁piv	-11790
][28]	-11791
][37]	-11792
ansas	-11793
atrap	-11794
bourg	-11795
domin	-11796
image	-11797
itzer	-11798
ordan	-11799
ptoms	-11800
ranus	-11801
▁1917	-11802
▁1942	-11803
▁2003	-11804
▁Anti	-11805
▁Last	-11806
▁Nine	-11807
▁Nova	-11808
▁Rest	-11809
▁evil	-11810
.[248]	-11811
.[253]	-11812
.[263]	-11813
German	-11814
aceous	-11815
imated	-11816
ivided	-11817
ometer	-11818
▁1941,	-11819
▁Coral	-11820
▁Edgar	-11821
▁Incas	-11822
▁Isles	-11823
▁Loren	-11824
▁Rural	-11825
▁Urugu	-11826
▁Weber	-11827
▁ceded	-11828
▁dealt	-11829
▁decip	-11830
▁incon	-11831
▁inhib	-11832
▁ivory	-11833
▁ornam	-11834
▁seats	-11835
▁seeds	-11836
▁sheep	-11837
▁sizes	-11838
▁Agency	-11839
▁Antiqu	-11840
▁Kublai	-11841
▁Meteor	-11842
▁Oxford	-11843
▁Paragu	-11844
▁Rather	-11845
▁Warsaw	-11846
▁backed	-11847
▁bishop	-11848
▁canopy	-11849
▁capita	-11850
▁daimyō	-11851
▁deform	-11852
▁earned	-11853
▁equest	-11854
▁halted	-11855
▁hybrid	-11856
▁incomp	-11857
▁offers	-11858
▁racism	-11859
▁recapt	-11860
▁relate	-11861
▁scarce	-11862
iability	-11863
ognitive	-11864
▁Abbasid	-11865
▁archaic	-11866
▁captain	-11867
▁concert	-11868
▁divorce	-11869
▁engines	-11870
▁photons	-11871
▁prolong	-11872
▁recruit	-11873
▁soldier	-11874
▁solving	-11875
▁surplus	-11876
▁therapy	-11877
▁valleys	-11878
▁withdra	-11879
connected	-11880
▁Brittany	-11881
▁Stilicho	-11882
▁analyses	-11883
▁climatic	-11884
▁dictator	-11885
▁displace	-11886
▁drawings	-11887
▁holdings	-11888
▁impacted	-11889
▁memorial	-11890
▁relating	-11891
▁supports	-11892
controlled	-11893
▁Justinian	-11894
▁Rebellion	-11895
▁Socialist	-11896
▁allegedly	-11897
▁collision	-11898
▁combining	-11899
▁comparing	-11900
▁departure	-11901
▁descended	-11902
▁extracted	-11903
▁geometric	-11904
▁machinery	-11905
▁recession	-11906
▁regulated	-11907
▁southeast	-11908
▁spherical	-11909
▁Theodosius	-11910
▁conducting	-11911
▁facilitate	-11912
▁impression	-11913
▁interviews	-11914
▁migrations	-11915
▁procedures	-11916
▁appointment	-11917
▁categorized	-11918
▁centralized	-11919
▁communicate	-11920
▁countryside	-11921
▁exacerbated	-11922
▁sedimentary	-11923
▁capabilities	-11924
▁emancipation	-11925
▁headquarters	-11926
▁illegitimate	-11927
▁modification	-11928
▁proportional	-11929
PP	-11930
RE	-11931
7][	-11932
8–1	-11933
Mus	-11934
aza	-11935
cca	-11936
igu	-11937
teb	-11938
ubs	-11939
urt	-11940
▁(8	-11941
▁41	-11942
▁AR	-11943
▁Ll	-11944
▁zo	-11945
."[9	-11946
...]	-11947
1][7	-11948
][2]	-11949
][45	-11950
burn	-11951
east	-11952
iful	-11953
imat	-11954
mund	-11955
orum	-11956
plan	-11957
rers	-11958
riac	-11959
seud	-11960
ubic	-11961
wick	-11962
▁70%	-11963
▁Edo	-11964
▁Fil	-11965
▁Qur	-11966
▁Saf	-11967
▁cam	-11968
▁fly	-11969
][20]	-11970
][22]	-11971
][54]	-11972
acher	-11973
agnac	-11974
arted	-11975
eland	-11976
enger	-11977
erary	-11978
isdom	-11979
ocrat	-11980
rgarh	-11981
rings	-11982
there	-11983
umber	-11984
▁1949	-11985
▁1992	-11986
▁Bart	-11987
▁Capt	-11988
▁Fear	-11989
▁Hard	-11990
▁Salv	-11991
▁Sikh	-11992
▁Vlad	-11993
▁dogs	-11994
▁incl	-11995
▁lect	-11996
▁oxid	-11997
▁rans	-11998
▁scre	-11999
▁wing	-12000
.[242]	-12001
.[249]	-12002
.[264]	-12003
French	-12004
aments	-12005
determ	-12006
ochond	-12007
othing	-12008
uclear	-12009
urated	-12010
urgent	-12011
▁Ayyub	-12012
▁Cross	-12013
▁Elder	-12014
▁Liter	-12015
▁Nixon	-12016
▁Reich	-12017
▁bread	-12018
▁camer	-12019
▁gladi	-12020
▁motor	-12021
▁smugg	-12022
▁thres	-12023
through	-12024
▁Manuel	-12025
▁Truman	-12026
▁adjust	-12027
▁assign	-12028
▁burden	-12029
▁cortex	-12030
▁costly	-12031
▁pollut	-12032
▁redist	-12033
▁serves	-12034
▁shells	-12035
▁smooth	-12036
▁virgin	-12037
although	-12038
elescope	-12039
▁Brigade	-12040
▁Genoese	-12041
▁Jackson	-12042
▁Profess	-12043
▁Tornado	-12044
▁bearing	-12045
▁catalog	-12046
▁confron	-12047
▁desired	-12048
▁ensured	-12049
▁exagger	-12050
▁fleeing	-12051
▁healthy	-12052
▁lacking	-12053
▁leptons	-12054
▁sequest	-12055
▁travels	-12056
Columbian	-12057
ictionary	-12058
othetical	-12059
represent	-12060
▁Cardinal	-12061
▁Czechosl	-12062
▁Durkheim	-12063
▁Isabella	-12064
▁Mehrgarh	-12065
▁borrowed	-12066
▁clearing	-12067
▁clinical	-12068
▁homogene	-12069
▁longwave	-12070
▁reciproc	-12071
▁revolted	-12072
▁settings	-12073
▁strictly	-12074
▁suddenly	-12075
▁unlikely	-12076
▁Acropolis	-12077
▁Loyalists	-12078
▁Manchuria	-12079
▁biography	-12080
▁communism	-12081
▁disrupted	-12082
▁excessive	-12083
▁exoplanet	-12084
▁favorable	-12085
▁forbidden	-12086
▁mitochond	-12087
▁precision	-12088
▁programme	-12089
▁sanctions	-12090
▁sponsored	-12091
▁supernova	-12092
▁theorized	-12093
▁violation	-12094
▁Psychology	-12095
▁contrasted	-12096
▁favourable	-12097
▁monitoring	-12098
▁accumulated	-12099
▁conventions	-12100
▁destructive	-12101
▁interacting	-12102
▁prehistoric	-12103
▁recommended	-12104
▁variability	-12105
▁intellectuals	-12106
▁implementation	-12107
▁anthropological	-12108
.8	-12109
An	-12110
ET	-12111
We	-12112
1),	-12113
aba	-12114
cap	-12115
dru	-12116
fem	-12117
flo	-12118
iva	-12119
iya	-12120
iza	-12121
mun	-12122
omo	-12123
rer	-12124
uni	-12125
vre	-12126
ygd	-12127
▁43	-12128
▁Hy	-12129
.[54	-12130
King	-12131
][8]	-12132
abot	-12133
alph	-12134
atán	-12135
cium	-12136
enne	-12137
imir	-12138
outs	-12139
some	-12140
uart	-12141
were	-12142
ysic	-12143
éans	-12144
▁115	-12145
▁125	-12146
▁Bes	-12147
▁Cam	-12148
▁Dal	-12149
▁Ern	-12150
▁Fif	-12151
▁Hig	-12152
▁Hob	-12153
▁Kaz	-12154
▁Str	-12155
▁bol	-12156
▁cyl	-12157
▁enl	-12158
▁fro	-12159
▁tut	-12160
adors	-12161
eches	-12162
emics	-12163
etics	-12164
first	-12165
grade	-12166
imals	-12167
inius	-12168
ioned	-12169
ocean	-12170
riage	-12171
▁(199	-12172
▁1948	-12173
▁1968	-12174
▁1989	-12175
▁1999	-12176
▁Farm	-12177
▁Uruk	-12178
▁bias	-12179
▁boat	-12180
▁narr	-12181
▁neur	-12182
▁rent	-12183
▁seab	-12184
.[256]	-12185
.[25]:	-12186
Soviet	-12187
hering	-12188
powder	-12189
second	-12190
virate	-12191
▁1943,	-12192
▁1960,	-12193
▁2016,	-12194
▁Andes	-12195
▁Field	-12196
▁Olymp	-12197
▁amate	-12198
▁amino	-12199
▁cohes	-12200
▁index	-12201
▁maize	-12202
▁monso	-12203
▁pater	-12204
▁proto	-12205
▁rocky	-12206
▁teams	-12207
agascar	-12208
alities	-12209
ometime	-12210
umbered	-12211
▁Kuiper	-12212
▁Vienna	-12213
▁depths	-12214
▁emerge	-12215
▁endeav	-12216
▁evolve	-12217
▁excell	-12218
▁exotic	-12219
▁extrem	-12220
▁heaven	-12221
▁hoping	-12222
▁infect	-12223
▁merged	-12224
▁metric	-12225
▁noting	-12226
▁outlaw	-12227
▁profit	-12228
▁purely	-12229
▁ranked	-12230
▁recall	-12231
▁repuls	-12232
▁routed	-12233
▁sample	-12234
▁solely	-12235
▁sparse	-12236
▁stands	-12237
▁subjug	-12238
▁suffer	-12239
▁traces	-12240
▁Gregory	-12241
▁Malcolm	-12242
▁Russell	-12243
▁Yucatán	-12244
▁biggest	-12245
▁bishops	-12246
▁dealing	-12247
▁doubled	-12248
▁failing	-12249
▁grammar	-12250
▁harmony	-12251
▁hearing	-12252
▁militia	-12253
▁paradox	-12254
▁resumed	-12255
▁sapiens	-12256
▁sharing	-12257
▁Armagnac	-12258
▁Colonies	-12259
▁Damascus	-12260
▁Magellan	-12261
▁assuming	-12262
▁biblical	-12263
▁communal	-12264
▁compound	-12265
▁crusades	-12266
▁droplets	-12267
▁glaciers	-12268
▁mobility	-12269
▁neighbor	-12270
▁periodic	-12271
▁precious	-12272
▁priority	-12273
▁smelting	-12274
▁Anatolian	-12275
▁Sometimes	-12276
▁Tennessee	-12277
▁comprised	-12278
▁electoral	-12279
▁heartland	-12280
▁possessed	-12281
▁realistic	-12282
▁struggles	-12283
dimensional	-12284
▁Conversely	-12285
▁Ecosystems	-12286
▁Florentine	-12287
▁Madagascar	-12288
▁collecting	-12289
▁delegation	-12290
▁negatively	-12291
▁preference	-12292
▁referendum	-12293
▁differently	-12294
▁Johannesburg	-12295
▁continuously	-12296
▁encompassing	-12297
▁hieroglyphic	-12298
▁hypothetical	-12299
▁improvements	-12300
▁decomposition	-12301
▁fragmentation	-12302
▁correspondence	-12303
Al	-12304
Cl	-12305
RC	-12306
ui	-12307
{2	-12308
NCC	-12309
[23	-12310
asp	-12311
azz	-12312
chi	-12313
eld	-12314
ema	-12315
may	-12316
reb	-12317
▁Cá	-12318
▁Da	-12319
▁Tl	-12320
▁XV	-12321
,[24	-12322
7][7	-12323
agat	-12324
anka	-12325
enos	-12326
four	-12327
gins	-12328
helm	-12329
ilty	-12330
imet	-12331
llor	-12332
vian	-12333
when	-12334
▁121	-12335
▁170	-12336
▁Nik	-12337
▁Ori	-12338
▁Rum	-12339
▁Sag	-12340
▁Son	-12341
▁Tao	-12342
▁Yug	-12343
▁dat	-12344
▁got	-12345
▁ost	-12346
][15]	-12347
][23]	-12348
amous	-12349
chest	-12350
chron	-12351
icing	-12352
ilian	-12353
iline	-12354
imbab	-12355
orers	-12356
uthor	-12357
▁(197	-12358
▁1967	-12359
▁1975	-12360
▁2004	-12361
▁2050	-12362
▁Acts	-12363
▁Bill	-12364
▁Brut	-12365
▁Cann	-12366
▁Euph	-12367
▁Gran	-12368
▁Hipp	-12369
▁Nero	-12370
▁Rock	-12371
▁Saud	-12372
▁Shah	-12373
▁Star	-12374
▁bare	-12375
▁halo	-12376
▁loan	-12377
▁pool	-12378
▁stal	-12379
▁welc	-12380
.[266]	-12381
.[276]	-12382
.[279]	-12383
better	-12384
entric	-12385
igraph	-12386
urable	-12387
▁1919,	-12388
▁Andre	-12389
▁Bangl	-12390
▁Often	-12391
▁Proto	-12392
▁Swiss	-12393
▁Vedic	-12394
▁amygd	-12395
▁anger	-12396
▁crash	-12397
▁deadl	-12398
▁fatal	-12399
▁mitig	-12400
▁pride	-12401
▁rises	-12402
▁scene	-12403
▁sharp	-12404
▁strip	-12405
▁talks	-12406
▁teeth	-12407
▁terra	-12408
▁video	-12409
▁voice	-12410
Hungary	-12411
acteria	-12412
aughter	-12413
ighters	-12414
▁Bridge	-12415
▁County	-12416
▁Econom	-12417
▁Edmund	-12418
▁Heaven	-12419
▁Indeed	-12420
▁Rhodes	-12421
▁Stuart	-12422
▁Syriac	-12423
▁acoust	-12424
▁eldest	-12425
▁intent	-12426
▁lifted	-12427
▁openly	-12428
▁proven	-12429
▁recomb	-12430
▁sevent	-12431
▁thanks	-12432
▁worksh	-12433
language	-12434
▁Academy	-12435
▁Chamber	-12436
▁Gilbert	-12437
▁Lorenzo	-12438
▁Raymond	-12439
▁Similar	-12440
▁Species	-12441
▁Wilhelm	-12442
▁Without	-12443
▁barrier	-12444
▁compete	-12445
▁diagram	-12446
▁dollars	-12447
▁enzymes	-12448
▁printed	-12449
▁replied	-12450
▁resolve	-12451
▁selling	-12452
▁theatre	-12453
▁traject	-12454
▁treason	-12455
▁Administ	-12456
▁Bastille	-12457
▁Encyclop	-12458
▁Hamilton	-12459
▁Kentucky	-12460
▁Leonidas	-12461
▁Province	-12462
▁airborne	-12463
▁amphithe	-12464
▁appealed	-12465
▁balanced	-12466
▁captives	-12467
▁confused	-12468
▁constell	-12469
▁coverage	-12470
▁drinking	-12471
▁embraced	-12472
▁engaging	-12473
▁funerary	-12474
▁judicial	-12475
▁modeling	-12476
▁overland	-12477
▁planting	-12478
▁presents	-12479
▁properly	-12480
▁Highlands	-12481
▁Petrograd	-12482
▁believing	-12483
▁considers	-12484
▁delegates	-12485
▁hippocamp	-12486
▁irregular	-12487
▁newspaper	-12488
▁subsidies	-12489
▁successes	-12490
▁variously	-12491
▁Federation	-12492
▁Hispaniola	-12493
▁allegiance	-12494
▁ambassador	-12495
▁determines	-12496
▁eliminated	-12497
▁narratives	-12498
▁statistics	-12499
▁conjunction	-12500
▁emphasizing	-12501
▁frequencies	-12502
▁illustrated	-12503
▁intensified	-12504
▁investigate	-12505
▁Historically	-12506
▁assimilation	-12507
▁constituents	-12508
▁experiencing	-12509
▁implementing	-12510
▁manufactured	-12511
▁administrators	-12512
▁considerations	-12513
▁identification	-12514
"—	-12515
BI	-12516
DE	-12517
eo	-12518
fl	-12519
hl	-12520
oz	-12521
ün	-12522
ān	-12523
hol	-12524
uba	-12525
íaz	-12526
▁1%	-12527
▁Ka	-12528
,[25	-12529
."[6	-12530
.[51	-12531
1][8	-12532
8][3	-12533
Pers	-12534
Russ	-12535
gral	-12536
ilst	-12537
▁(12	-12538
▁End	-12539
▁Guj	-12540
▁Ken	-12541
▁Lev	-12542
▁Opp	-12543
▁Tow	-12544
▁Tud	-12545
▁bin	-12546
▁dub	-12547
▁gri	-12548
▁pin	-12549
▁ren	-12550
▁umb	-12551
][12]	-12552
][26]	-12553
][33]	-12554
][34]	-12555
][48]	-12556
][49]	-12557
apers	-12558
chief	-12559
egreg	-12560
inded	-12561
oples	-12562
orate	-12563
ports	-12564
uador	-12565
worth	-12566
▁1600	-12567
▁1945	-12568
▁1955	-12569
▁1961	-12570
▁Anth	-12571
▁Coll	-12572
▁Cors	-12573
▁Díaz	-12574
▁Fall	-12575
▁Hans	-12576
▁Rash	-12577
▁aged	-12578
▁anch	-12579
▁coma	-12580
▁deny	-12581
▁feat	-12582
▁lava	-12583
▁numb	-12584
▁oath	-12585
▁olig	-12586
▁pupp	-12587
▁span	-12588
▁vern	-12589
.[257]	-12590
.[272]	-12591
.[284]	-12592
Muslim	-12593
archer	-12594
icides	-12595
rarian	-12596
▁1989,	-12597
▁2022,	-12598
▁Chand	-12599
▁Codex	-12600
▁Drake	-12601
▁Eight	-12602
▁Horde	-12603
▁Model	-12604
▁NAACP	-12605
▁bears	-12606
▁canal	-12607
▁chair	-12608
▁clans	-12609
▁overc	-12610
▁posed	-12611
▁watch	-12612
atories	-12613
imbabwe	-12614
risings	-12615
▁Reagan	-12616
▁Uranus	-12617
▁Yugosl	-12618
▁consec	-12619
▁conven	-12620
▁extant	-12621
▁guilty	-12622
▁infant	-12623
▁influx	-12624
▁landsc	-12625
▁option	-12626
▁street	-12627
▁summit	-12628
▁valued	-12629
imperial	-12630
official	-12631
ospheric	-12632
▁Baptist	-12633
▁Increas	-12634
▁Orléans	-12635
▁banning	-12636
▁columns	-12637
▁examine	-12638
▁fifteen	-12639
▁manoeuv	-12640
▁militar	-12641
▁precurs	-12642
▁seizing	-12643
▁trophic	-12644
▁viewing	-12645
aboration	-12646
apartheid	-12647
religious	-12648
▁Seleucid	-12649
▁Zimbabwe	-12650
▁admitted	-12651
▁believes	-12652
▁desegreg	-12653
▁differed	-12654
▁district	-12655
▁ensuring	-12656
▁forestry	-12657
▁granting	-12658
▁manpower	-12659
▁orthodox	-12660
▁rebelled	-12661
▁rhetoric	-12662
▁spectral	-12663
▁speeches	-12664
▁Democrats	-12665
▁Guatemala	-12666
▁Telescope	-12667
▁composers	-12668
▁inflicted	-12669
▁submitted	-12670
▁witnessed	-12671
▁assemblies	-12672
▁attractive	-12673
▁capitalist	-12674
▁comprising	-12675
▁eukaryotes	-12676
▁fragmented	-12677
▁inevitable	-12678
▁parameters	-12679
▁senatorial	-12680
▁starvation	-12681
▁travelling	-12682
▁Nonetheless	-12683
▁adaptations	-12684
▁anticipated	-12685
▁approaching	-12686
▁atmospheres	-12687
▁improvement	-12688
▁instruction	-12689
▁qualitative	-12690
▁radioactive	-12691
▁Agricultural	-12692
▁Philadelphia	-12693
▁compensation	-12694
▁metropolitan	-12695
▁nationalists	-12696
▁neuroscience	-12697
▁preparations	-12698
▁Protestantism	-12699
▁computational	-12700
▁developmental	-12701
▁extraordinary	-12702
":	-12703
AA	-12704
IM	-12705
OC	-12706
Re	-12707
rh	-12708
sm	-12709
-20	-12710
6),	-12711
6][	-12712
hav	-12713
icy	-12714
iji	-12715
ket	-12716
sal	-12717
zal	-12718
▁7,	-12719
▁MP	-12720
▁NP	-12721
▁dr	-12722
▁pH	-12723
▁}}	-12724
0][7	-12725
6][9	-12726
abul	-12727
aman	-12728
amps	-12729
elsh	-12730
etus	-12731
just	-12732
orph	-12733
thew	-12734
uary	-12735
▁104	-12736
▁165	-12737
▁Alt	-12738
▁Ark	-12739
▁FAO	-12740
▁Jim	-12741
▁Mao	-12742
▁Mid	-12743
▁Mut	-12744
▁Nar	-12745
▁Tog	-12746
▁aug	-12747
▁ble	-12748
▁buy	-12749
▁cow	-12750
▁pit	-12751
7][10	-12752
Afric	-12753
][13]	-12754
][21]	-12755
][24]	-12756
][44]	-12757
built	-12758
henes	-12759
illas	-12760
often	-12761
onnes	-12762
piece	-12763
ridor	-12764
▁1870	-12765
▁1998	-12766
▁2001	-12767
▁Cond	-12768
▁Pall	-12769
▁Pole	-12770
▁Supp	-12771
▁Vene	-12772
▁XIII	-12773
▁cler	-12774
▁coex	-12775
▁hear	-12776
▁poem	-12777
▁seaw	-12778
▁seiz	-12779
.[268]	-12780
.[274]	-12781
action	-12782
anners	-12783
asting	-12784
drubal	-12785
hetics	-12786
people	-12787
rupted	-12788
ustion	-12789
▁1915,	-12790
▁8,000	-12791
▁Aquit	-12792
▁Congo	-12793
▁Duchy	-12794
▁Exper	-12795
▁Lloyd	-12796
▁Maxim	-12797
▁Perse	-12798
▁Pliny	-12799
▁Texas	-12800
▁Yemen	-12801
▁autob	-12802
▁bioge	-12803
▁cargo	-12804
▁decre	-12805
▁dozen	-12806
▁forty	-12807
▁gross	-12808
▁hills	-12809
▁hopes	-12810
▁lacks	-12811
▁recre	-12812
▁sixth	-12813
▁skirm	-12814
▁usual	-12815
▁vocal	-12816
actions	-12817
astrous	-12818
develop	-12819
essment	-12820
herence	-12821
portant	-12822
▁60,000	-12823
▁Carter	-12824
▁Cortés	-12825
▁Forces	-12826
▁Guards	-12827
▁Marius	-12828
▁Origin	-12829
▁Panama	-12830
▁Planck	-12831
▁astrol	-12832
▁blamed	-12833
▁cooler	-12834
▁decide	-12835
▁defect	-12836
▁deport	-12837
▁enable	-12838
▁harass	-12839
▁ridges	-12840
▁rocket	-12841
▁teleph	-12842
ccentric	-12843
numbered	-12844
▁Birming	-12845
▁Khanate	-12846
▁Knights	-12847
▁Lepidus	-12848
▁Nigeria	-12849
▁Reserve	-12850
▁Saladin	-12851
▁alleles	-12852
▁applies	-12853
▁careful	-12854
▁conform	-12855
▁debates	-12856
▁drafted	-12857
▁essence	-12858
▁fitness	-12859
▁flowing	-12860
▁glacial	-12861
▁multipl	-12862
▁partner	-12863
▁passion	-12864
▁patient	-12865
▁raiders	-12866
▁samurai	-12867
criptions	-12868
iscovered	-12869
izational	-12870
▁Crusader	-12871
▁District	-12872
▁Margaret	-12873
▁Northumb	-12874
▁Williams	-12875
▁finished	-12876
▁integral	-12877
▁laborers	-12878
▁membrane	-12879
▁numbered	-12880
▁populace	-12881
▁refusing	-12882
▁regained	-12883
▁releases	-12884
▁scenario	-12885
▁severity	-12886
▁thorough	-12887
▁treasure	-12888
▁Hasdrubal	-12889
▁Lithuania	-12890
▁Prussians	-12891
▁associate	-12892
▁calculate	-12893
▁carbonate	-12894
▁companion	-12895
▁diplomacy	-12896
▁discharge	-12897
▁hospitals	-12898
▁hurricane	-12899
▁neighbors	-12900
▁preparing	-12901
▁recognise	-12902
▁rejection	-12903
▁voluntary	-12904
▁worldview	-12905
▁Birmingham	-12906
▁accomplish	-12907
▁architects	-12908
▁foreigners	-12909
▁landscapes	-12910
▁overthrown	-12911
▁practition	-12912
▁references	-12913
▁supplement	-12914
governmental	-12915
▁correlation	-12916
▁drastically	-12917
▁originating	-12918
▁predecessor	-12919
▁predominant	-12920
▁replication	-12921
▁respiration	-12922
▁speculation	-12923
▁accelerating	-12924
▁calculations	-12925
▁conscription	-12926
▁heliocentric	-12927
▁consideration	-12928
▁entertainment	-12929
▁ecclesiastical	-12930
▁stratification	-12931
▁classifications	-12932
SF	-12933
eu	-12934
ín	-12935
700	-12936
Tur	-12937
[16	-12938
aca	-12939
asu	-12940
inu	-12941
omi	-12942
uda	-12943
▁Wu	-12944
▁pm	-12945
....	-12946
5][7	-12947
][37	-12948
][6]	-12949
amph	-12950
anch	-12951
bons	-12952
cian	-12953
educ	-12954
eren	-12955
erto	-12956
fran	-12957
isal	-12958
isan	-12959
leum	-12960
lled	-12961
olly	-12962
text	-12963
uate	-12964
unes	-12965
▁127	-12966
▁Alg	-12967
▁Ali	-12968
▁Ari	-12969
▁Fab	-12970
▁Hus	-12971
▁Lag	-12972
▁Lud	-12973
▁Pon	-12974
▁Pra	-12975
▁Rou	-12976
▁Tak	-12977
▁Tay	-12978
▁Tom	-12979
▁aux	-12980
▁fre	-12981
▁kur	-12982
▁lav	-12983
▁una	-12984
2][14	-12985
][41]	-12986
][47]	-12987
][50]	-12988
][51]	-12989
herom	-12990
lined	-12991
night	-12992
oning	-12993
rying	-12994
urnal	-12995
▁"...	-12996
▁1790	-12997
▁1994	-12998
▁Chal	-12999
▁Code	-13000
▁Curt	-13001
▁José	-13002
▁Mard	-13003
▁NATO	-13004
▁bapt	-13005
▁corn	-13006
▁fill	-13007
▁harv	-13008
▁suit	-13009
▁swit	-13010
▁wire	-13011
.[265]	-13012
.[267]	-13013
.[281]	-13014
.[283]	-13015
adians	-13016
ailand	-13017
headed	-13018
isible	-13019
▁1,500	-13020
▁1944,	-13021
▁Brand	-13022
▁Citiz	-13023
▁Guang	-13024
▁Negro	-13025
▁Saudi	-13026
▁Vinci	-13027
▁cores	-13028
▁drugs	-13029
▁faces	-13030
▁fifty	-13031
▁frust	-13032
▁genre	-13033
▁incom	-13034
▁ratio	-13035
▁swift	-13036
▁truly	-13037
▁unite	-13038
Babylon	-13039
brother	-13040
ciences	-13041
igraphy	-13042
ilation	-13043
largest	-13044
▁Action	-13045
▁Austro	-13046
▁Bishop	-13047
▁Chance	-13048
▁Gallic	-13049
▁Halley	-13050
▁Nearly	-13051
▁clocks	-13052
▁entrep	-13053
▁fisher	-13054
▁genius	-13055
▁interm	-13056
▁prolif	-13057
▁rooted	-13058
▁stalem	-13059
▁vector	-13060
ogenesis	-13061
visional	-13062
▁Bavaria	-13063
▁Clement	-13064
▁Commons	-13065
▁Ecuador	-13066
▁Hawking	-13067
▁Holland	-13068
▁Peoples	-13069
▁crushed	-13070
▁faculty	-13071
▁orchest	-13072
▁procons	-13073
▁sharply	-13074
▁vassals	-13075
astrophic	-13076
▁Cemetery	-13077
▁Galactic	-13078
▁Syracuse	-13079
▁Vladimir	-13080
▁activist	-13081
▁adaptive	-13082
▁critique	-13083
▁deceased	-13084
▁deported	-13085
▁dividing	-13086
▁monastic	-13087
▁ordering	-13088
▁painters	-13089
▁patients	-13090
▁petition	-13091
▁plebeian	-13092
▁provoked	-13093
▁shifting	-13094
▁situated	-13095
▁stripped	-13096
▁welcomed	-13097
ignificant	-13098
▁Amendment	-13099
▁Babylonia	-13100
▁Brazilian	-13101
▁Estimates	-13102
▁Euphrates	-13103
▁Knowledge	-13104
▁Northwest	-13105
▁abilities	-13106
▁accompany	-13107
▁breakdown	-13108
▁confusion	-13109
▁declaring	-13110
▁deposited	-13111
▁engineers	-13112
▁guerrilla	-13113
▁gunpowder	-13114
▁inscribed	-13115
▁integrate	-13116
▁originate	-13117
▁privately	-13118
▁prolonged	-13119
▁reproduce	-13120
▁tolerance	-13121
▁traveling	-13122
▁Bangladesh	-13123
▁Petersburg	-13124
▁Protection	-13125
▁advantages	-13126
▁annexation	-13127
▁disastrous	-13128
▁identities	-13129
▁prosperous	-13130
▁researcher	-13131
▁retreating	-13132
▁undertaken	-13133
▁vernacular	-13134
▁Palestinian	-13135
▁Provisional	-13136
▁advancement	-13137
▁constituent	-13138
▁constraints	-13139
▁encouraging	-13140
▁introducing	-13141
▁investments	-13142
▁overlapping	-13143
▁problematic	-13144
▁revolutions	-13145
▁subsistence	-13146
▁terminology	-13147
▁unification	-13148
▁colonisation	-13149
▁consequently	-13150
▁constructing	-13151
▁reproductive	-13152
▁Psychologists	-13153
▁consequential	-13154
▁consolidation	-13155
▁interpersonal	-13156
▁interventions	-13157
▁magnetosphere	-13158
▁Czechoslovakia	-13159
▁reconciliation	-13160
▁thermodynamics	-13161
LO	-13162
TC	-13163
.5%	-13164
5),	-13165
Con	-13166
[17	-13167
asm	-13168
eva	-13169
gun	-13170
ihu	-13171
lli	-13172
oqu	-13173
rob	-13174
uts	-13175
▁51	-13176
▁8.	-13177
▁Ra	-13178
2][6	-13179
3][8	-13180
3][9	-13181
arms	-13182
book	-13183
edia	-13184
itas	-13185
mies	-13186
ogic	-13187
secs	-13188
supp	-13189
tion	-13190
usco	-13191
zhou	-13192
▁10,	-13193
▁109	-13194
▁129	-13195
▁168	-13196
▁Alm	-13197
▁Arc	-13198
▁Mir	-13199
▁Mit	-13200
▁Rem	-13201
▁box	-13202
▁ced	-13203
▁gig	-13204
▁luc	-13205
1][10	-13206
2][10	-13207
7][11	-13208
][40]	-13209
][42]	-13210
archs	-13211
asant	-13212
dated	-13213
eness	-13214
inism	-13215
iscal	-13216
ybius	-13217
▁1815	-13218
▁1840	-13219
▁2030	-13220
▁Barn	-13221
▁Bure	-13222
▁Diet	-13223
▁Giza	-13224
▁Jain	-13225
▁Mith	-13226
▁Prim	-13227
▁Reef	-13228
▁Wang	-13229
▁card	-13230
▁gate	-13231
▁inex	-13232
▁mete	-13233
▁mood	-13234
▁owed	-13235
▁plus	-13236
▁talk	-13237
▁turm	-13238
▁wore	-13239
.[273]	-13240
atible	-13241
bourne	-13242
enging	-13243
nation	-13244
racial	-13245
umping	-13246
▁1918,	-13247
▁1947,	-13248
▁2008,	-13249
▁2012,	-13250
▁2017,	-13251
▁Bened	-13252
▁Capit	-13253
▁Clark	-13254
▁Creat	-13255
▁Davis	-13256
▁Freud	-13257
▁Index	-13258
▁Kyoto	-13259
▁Mecca	-13260
▁Techn	-13261
▁Zheng	-13262
▁acids	-13263
▁capit	-13264
▁deter	-13265
▁hyper	-13266
▁ninth	-13267
▁plaus	-13268
▁poems	-13269
▁recur	-13270
▁slope	-13271
▁widow	-13272
▁wives	-13273
.[63][6	-13274
angular	-13275
clusion	-13276
estones	-13277
holders	-13278
ilience	-13279
iodorus	-13280
utenant	-13281
▁Agripp	-13282
▁Andean	-13283
▁Balkan	-13284
▁Chagat	-13285
▁Fourth	-13286
▁Health	-13287
▁Sargon	-13288
▁Vasari	-13289
▁aftern	-13290
▁amphib	-13291
▁arises	-13292
▁barley	-13293
▁crises	-13294
▁envoys	-13295
▁errors	-13296
▁exterm	-13297
▁freely	-13298
▁fresco	-13299
▁giants	-13300
▁handed	-13301
▁housed	-13302
▁incurs	-13303
▁nomads	-13304
▁recept	-13305
▁retrie	-13306
▁satrap	-13307
▁slight	-13308
▁supers	-13309
perature	-13310
specific	-13311
▁Culture	-13312
▁Switzer	-13313
▁advised	-13314
▁aligned	-13315
▁blocked	-13316
▁calcium	-13317
▁empress	-13318
▁exploit	-13319
▁getting	-13320
▁imagery	-13321
▁neutron	-13322
▁notions	-13323
▁overlap	-13324
▁plateau	-13325
▁plebisc	-13326
▁profile	-13327
▁railway	-13328
▁rebuilt	-13329
▁refined	-13330
▁scatter	-13331
dominated	-13332
ibilities	-13333
▁Liberals	-13334
▁Religion	-13335
▁Tasmania	-13336
▁agrarian	-13337
▁aqueduct	-13338
▁archives	-13339
▁artisans	-13340
▁cellular	-13341
▁ceramics	-13342
▁classify	-13343
▁compiled	-13344
▁defences	-13345
▁enduring	-13346
▁focusing	-13347
▁journals	-13348
▁mutually	-13349
▁portrait	-13350
▁presumed	-13351
▁redshift	-13352
▁solstice	-13353
▁stressed	-13354
▁validity	-13355
government	-13356
▁Aquitaine	-13357
▁arbitrary	-13358
▁colonized	-13359
▁commodity	-13360
▁discrimin	-13361
▁doctrines	-13362
▁legendary	-13363
▁maintains	-13364
▁microbial	-13365
▁municipal	-13366
▁restoring	-13367
▁struggled	-13368
▁undertook	-13369
▁uprisings	-13370
▁Assessment	-13371
▁accelerate	-13372
▁acceptable	-13373
▁barbarians	-13374
▁communists	-13375
▁consulship	-13376
▁dependence	-13377
▁diminished	-13378
▁enterprise	-13379
▁militarily	-13380
▁morphology	-13381
▁pronounced	-13382
▁submission	-13383
▁supposedly	-13384
▁wavelength	-13385
▁Switzerland	-13386
▁limitations	-13387
▁theologians	-13388
▁theological	-13389
▁Confucianism	-13390
▁disagreement	-13391
▁displacement	-13392
▁surroundings	-13393
▁communicative	-13394
▁sequestration	-13395
.'	-13396
38	-13397
;[	-13398
AN	-13399
BC	-13400
CP	-13401
SI	-13402
bb	-13403
do	-13404
mi	-13405
yo	-13406
–8	-13407
8][	-13408
Can	-13409
Mar	-13410
aks	-13411
apa	-13412
lie	-13413
pta	-13414
yes	-13415
▁5.	-13416
▁kg	-13417
▁py	-13418
4][6	-13419
7][8	-13420
8][8	-13421
9][8	-13422
auss	-13423
gans	-13424
pian	-13425
rice	-13426
ught	-13427
▁Abu	-13428
▁Inn	-13429
▁Lim	-13430
▁Nam	-13431
▁Rio	-13432
▁Sep	-13433
▁Sin	-13434
▁din	-13435
▁kpc	-13436
▁ped	-13437
▁pow	-13438
▁row	-13439
▁unt	-13440
."[11	-13441
4][10	-13442
Latin	-13443
][30]	-13444
][35]	-13445
][46]	-13446
][52]	-13447
][53]	-13448
][61]	-13449
aggar	-13450
esses	-13451
henon	-13452
matic	-13453
owski	-13454
ricts	-13455
stand	-13456
ulent	-13457
▁(195	-13458
▁1215	-13459
▁1700	-13460
▁1922	-13461
▁1944	-13462
▁1973	-13463
▁ARVN	-13464
▁Adam	-13465
▁Aure	-13466
▁Cust	-13467
▁Huns	-13468
▁Lang	-13469
▁Laws	-13470
▁Shan	-13471
▁Sino	-13472
▁Sund	-13473
▁Whig	-13474
▁adul	-13475
▁brig	-13476
▁bush	-13477
▁eyew	-13478
▁holy	-13479
▁pact	-13480
▁peri	-13481
▁pose	-13482
▁typh	-13483
.[246]	-13484
.[277]	-13485
.[306]	-13486
.[307]	-13487
artime	-13488
atomic	-13489
izarro	-13490
letian	-13491
omatic	-13492
ourers	-13493
racies	-13494
▁1948,	-13495
▁Angel	-13496
▁Crete	-13497
▁Maria	-13498
▁Matth	-13499
▁Pasha	-13500
▁Sansk	-13501
▁accus	-13502
▁adorn	-13503
▁affil	-13504
▁chest	-13505
▁encir	-13506
▁fring	-13507
▁monks	-13508
▁resid	-13509
▁spite	-13510
▁stake	-13511
▁troop	-13512
▁waged	-13513
Persian	-13514
chester	-13515
itating	-13516
ossibly	-13517
▁Danube	-13518
▁Marine	-13519
▁Puerto	-13520
▁Revolt	-13521
▁allele	-13522
▁angles	-13523
▁boycot	-13524
▁caught	-13525
▁denser	-13526
▁fleets	-13527
▁flying	-13528
▁nebula	-13529
▁neglig	-13530
▁pulled	-13531
▁reveal	-13532
▁rhythm	-13533
olutions	-13534
rigation	-13535
▁Bingham	-13536
▁Herbert	-13537
▁Romance	-13538
▁Weather	-13539
▁closing	-13540
▁dancers	-13541
▁denomin	-13542
▁gardens	-13543
▁linking	-13544
▁obliged	-13545
▁oneself	-13546
▁prokary	-13547
▁richest	-13548
▁shelter	-13549
▁springs	-13550
▁turmoil	-13551
▁yielded	-13552
ochemical	-13553
oeconomic	-13554
ophysical	-13555
▁Burgundy	-13556
▁Thailand	-13557
▁applying	-13558
▁capitals	-13559
▁councils	-13560
▁departed	-13561
▁evolving	-13562
▁imperium	-13563
▁imposing	-13564
▁invasive	-13565
▁marching	-13566
▁mentions	-13567
▁mythical	-13568
▁notation	-13569
▁opinions	-13570
▁paradigm	-13571
▁peripher	-13572
▁salinity	-13573
▁sanction	-13574
▁symptoms	-13575
▁tactical	-13576
▁youngest	-13577
▁Augustine	-13578
▁Discovery	-13579
▁Ethiopian	-13580
▁afternoon	-13581
▁depiction	-13582
▁districts	-13583
▁exploring	-13584
▁liberties	-13585
▁outbreaks	-13586
▁regiments	-13587
▁reluctant	-13588
▁threshold	-13589
▁Diocletian	-13590
▁Historical	-13591
▁accumulate	-13592
▁descendant	-13593
▁dispatched	-13594
▁disruption	-13595
▁entreprene	-13596
▁profitable	-13597
▁stretching	-13598
▁aristocrats	-13599
▁continually	-13600
▁coordinated	-13601
▁hostilities	-13602
▁initiatives	-13603
▁interchange	-13604
▁orientation	-13605
▁requirement	-13606
▁residential	-13607
▁subtropical	-13608
▁alternatives	-13609
▁catastrophic	-13610
▁conditioning	-13611
▁dictatorship	-13612
▁Peloponnesian	-13613
▁multicultural	-13614
▁reconstruction	-13615
61	-13616
IS	-13617
RA	-13618
uo	-13619
yt	-13620
5][	-13621
afa	-13622
aux	-13623
ito	-13624
nia	-13625
ods	-13626
roe	-13627
▁74	-13628
▁9,	-13629
▁Wa	-13630
▁ol	-13631
,[27	-13632
,[31	-13633
1][6	-13634
asis	-13635
atri	-13636
bedo	-13637
elli	-13638
frac	-13639
illy	-13640
myth	-13641
onal	-13642
rive	-13643
rome	-13644
stud	-13645
wana	-13646
–200	-13647
▁11,	-13648
▁450	-13649
▁60%	-13650
▁FBI	-13651
▁Fou	-13652
▁Gab	-13653
▁Ins	-13654
▁Let	-13655
▁PRC	-13656
▁Yam	-13657
▁bab	-13658
▁esp	-13659
▁gro	-13660
▁ore	-13661
▁rif	-13662
▁wal	-13663
5][18	-13664
Greek	-13665
Japan	-13666
acies	-13667
arius	-13668
fires	-13669
metry	-13670
olome	-13671
shire	-13672
zuela	-13673
▁(190	-13674
▁1947	-13675
▁1979	-13676
▁Burn	-13677
▁Cosm	-13678
▁Deep	-13679
▁Elam	-13680
▁Gang	-13681
▁Laos	-13682
▁Livy	-13683
▁Poit	-13684
▁Pont	-13685
▁SNCC	-13686
▁ante	-13687
▁fict	-13688
▁geom	-13689
▁herd	-13690
▁loop	-13691
▁prag	-13692
▁prog	-13693
▁shed	-13694
▁tent	-13695
▁torn	-13696
▁wake	-13697
.[275]	-13698
.[280]	-13699
.[299]	-13700
.[315]	-13701
.[317]	-13702
50][15	-13703
ayette	-13704
ivores	-13705
izable	-13706
ocking	-13707
otypes	-13708
points	-13709
verbal	-13710
▁1916,	-13711
▁1940,	-13712
▁1945,	-13713
▁2024,	-13714
▁Board	-13715
▁Delta	-13716
▁Haiti	-13717
▁Malta	-13718
▁Power	-13719
▁Pyram	-13720
▁Titan	-13721
▁Volta	-13722
▁caves	-13723
▁check	-13724
▁error	-13725
▁fever	-13726
▁owing	-13727
▁pitch	-13728
▁saved	-13729
▁spear	-13730
▁sport	-13731
▁stere	-13732
▁truce	-13733
▁tyran	-13734
antheon	-13735
eastern	-13736
forcing	-13737
iversal	-13738
ometric	-13739
rically	-13740
section	-13741
▁Almost	-13742
▁Easter	-13743
▁Kazakh	-13744
▁Lisbon	-13745
▁Marath	-13746
▁Minist	-13747
▁Thirty	-13748
▁Victor	-13749
▁aboard	-13750
▁abrupt	-13751
▁adject	-13752
▁biotic	-13753
▁brutal	-13754
▁causal	-13755
▁clause	-13756
▁convey	-13757
▁derive	-13758
▁finite	-13759
▁firmly	-13760
▁grants	-13761
▁heated	-13762
▁lawyer	-13763
▁online	-13764
▁papers	-13765
▁pherom	-13766
▁photon	-13767
▁presum	-13768
▁puppet	-13769
▁senses	-13770
▁sprink	-13771
▁timing	-13772
▁titled	-13773
▁weaker	-13774
▁worker	-13775
epending	-13776
▁Barbary	-13777
▁Caspian	-13778
▁Concern	-13779
▁Defense	-13780
▁Forests	-13781
▁Greater	-13782
▁Matthew	-13783
▁Maurice	-13784
▁Uruguay	-13785
▁besides	-13786
▁college	-13787
▁counted	-13788
▁coupled	-13789
▁dismant	-13790
▁feather	-13791
▁formula	-13792
▁frontal	-13793
▁implied	-13794
[...]
